{
  "version": "1.0",
  "truncation": null,
  "padding": null,
  "added_tokens": [
    {
      "id": 0,
      "content": "[UNK]",
      "single_word": false,
      "lstrip": false,
      "rstrip": false,
      "normalized": false,
      "special": true
    },
    {
      "id": 1,
      "content": "[CLS]",
      "single_word": false,
      "lstrip": false,
      "rstrip": false,
      "normalized": false,
      "special": true
    },
    {
      "id": 2,
      "content": "[SEP]",
      "single_word": false,
      "lstrip": false,
      "rstrip": false,
      "normalized": false,
      "special": true
    },
    {
      "id": 3,
      "content": "[PAD]",
      "single_word": false,
      "lstrip": false,
      "rstrip": false,
      "normalized": false,
      "special": true
    },
    {
      "id": 4,
      "content": "[MASK]",
      "single_word": false,
      "lstrip": false,
      "rstrip": false,
      "normalized": false,
      "special": true
    }
  ],
  "normalizer": null,
  "pre_tokenizer": {
    "type": "Whitespace"
  },
  "post_processor": null,
  "decoder": null,
  "model": {
    "type": "BPE",
    "dropout": null,
    "unk_token": "[UNK]",
    "continuing_subword_prefix": null,
    "end_of_word_suffix": null,
    "fuse_unk": false,
    "byte_fallback": false,
    "ignore_merges": false,
    "vocab": {
      "[UNK]": 0,
      "[CLS]": 1,
      "[SEP]": 2,
      "[PAD]": 3,
      "[MASK]": 4,
      "!": 5,
      "$": 6,
      "%": 7,
      "(": 8,
      ")": 9,
      "+": 10,
      ",": 11,
      "-": 12,
      ".": 13,
      "/": 14,
      "0": 15,
      "1": 16,
      "2": 17,
      "3": 18,
      "4": 19,
      "5": 20,
      "6": 21,
      "7": 22,
      "8": 23,
      "9": 24,
      ":": 25,
      ";": 26,
      "=": 27,
      "?": 28,
      "@": 29,
      "A": 30,
      "B": 31,
      "C": 32,
      "D": 33,
      "E": 34,
      "F": 35,
      "G": 36,
      "H": 37,
      "I": 38,
      "J": 39,
      "K": 40,
      "L": 41,
      "M": 42,
      "N": 43,
      "O": 44,
      "P": 45,
      "Q": 46,
      "R": 47,
      "S": 48,
      "T": 49,
      "U": 50,
      "V": 51,
      "W": 52,
      "X": 53,
      "Y": 54,
      "Z": 55,
      "a": 56,
      "b": 57,
      "c": 58,
      "d": 59,
      "e": 60,
      "f": 61,
      "g": 62,
      "h": 63,
      "i": 64,
      "j": 65,
      "k": 66,
      "l": 67,
      "m": 68,
      "n": 69,
      "o": 70,
      "p": 71,
      "q": 72,
      "r": 73,
      "s": 74,
      "t": 75,
      "u": 76,
      "v": 77,
      "w": 78,
      "x": 79,
      "y": 80,
      "z": 81,
      "°": 82,
      "á": 83,
      "ç": 84,
      "è": 85,
      "é": 86,
      "λ": 87,
      "А": 88,
      "Б": 89,
      "В": 90,
      "Г": 91,
      "Д": 92,
      "И": 93,
      "Л": 94,
      "Н": 95,
      "О": 96,
      "П": 97,
      "Р": 98,
      "С": 99,
      "Т": 100,
      "У": 101,
      "Х": 102,
      "Ч": 103,
      "Ы": 104,
      "Ь": 105,
      "Ю": 106,
      "Я": 107,
      "а": 108,
      "б": 109,
      "в": 110,
      "д": 111,
      "е": 112,
      "з": 113,
      "к": 114,
      "н": 115,
      "о": 116,
      "р": 117,
      "т": 118,
      "ц": 119,
      "ь": 120,
      "ю": 121,
      "–": 122,
      "—": 123,
      "‘": 124,
      "’": 125,
      "“": 126,
      "”": 127,
      "…": 128,
      "ℓ": 129,
      "™": 130,
      "♩": 131,
      "♪": 132,
      "♫": 133,
      "会": 134,
      "去": 135,
      "员": 136,
      "姚": 137,
      "官": 138,
      "室": 139,
      "带": 140,
      "我": 141,
      "拉": 142,
      "放": 143,
      "杆": 144,
      "板": 145,
      "甲": 146,
      "的": 147,
      "议": 148,
      "请": 149,
      "释": 150,
      "th": 151,
      "in": 152,
      "the": 153,
      "an": 154,
      "re": 155,
      "on": 156,
      "at": 157,
      "er": 158,
      "to": 159,
      "ou": 160,
      "en": 161,
      "st": 162,
      "it": 163,
      "he": 164,
      "ll": 165,
      "ing": 166,
      "le": 167,
      "me": 168,
      "or": 169,
      "is": 170,
      "ar": 171,
      "and": 172,
      "of": 173,
      "ro": 174,
      "ed": 175,
      "ha": 176,
      "se": 177,
      "ve": 178,
      "ow": 179,
      "id": 180,
      "es": 181,
      "as": 182,
      "ac": 183,
      "be": 184,
      "al": 185,
      "ay": 186,
      "ut": 187,
      ".”": 188,
      "ge": 189,
      "gh": 190,
      "li": 191,
      "ti": 192,
      "The": 193,
      "all": 194,
      "lo": 195,
      "ly": 196,
      "my": 197,
      "ck": 198,
      "ab": 199,
      "wi": 200,
      "that": 201,
      "ld": 202,
      "ad": 203,
      "for": 204,
      "ent": 205,
      "un": 206,
      "ch": 207,
      "mo": 208,
      "ke": 209,
      "ri": 210,
      "no": 211,
      "ion": 212,
      "ver": 213,
      "wh": 214,
      "so": 215,
      "co": 216,
      "ir": 217,
      "out": 218,
      "ne": 219,
      "sh": 220,
      "ght": 221,
      "ce": 222,
      "have": 223,
      "we": 224,
      "It": 225,
      "do": 226,
      "sp": 227,
      "are": 228,
      "with": 229,
      "su": 230,
      "you": 231,
      "sa": 232,
      "ust": 233,
      "nd": 234,
      "fe": 235,
      "mp": 236,
      "go": 237,
      "Th": 238,
      "con": 239,
      "now": 240,
      "te": 241,
      "thing": 242,
      "one": 243,
      "up": 244,
      "ma": 245,
      "ould": 246,
      "ra": 247,
      ",”": 248,
      "can": 249,
      "ter": 250,
      "?”": 251,
      "et": 252,
      "di": 253,
      "de": 254,
      "but": 255,
      "rop": 256,
      "was": 257,
      "ip": 258,
      "od": 259,
      "ic": 260,
      "qu": 261,
      "ok": 262,
      "ur": 263,
      "He": 264,
      "pe": 265,
      "ide": 266,
      "us": 267,
      "ther": 268,
      "el": 269,
      "ct": 270,
      "ack": 271,
      "wor": 272,
      "rom": 273,
      "just": 274,
      "au": 275,
      "here": 276,
      "But": 277,
      "from": 278,
      "get": 279,
      "Ast": 280,
      "not": 281,
      "ta": 282,
      "si": 283,
      "per": 284,
      "ropha": 285,
      "Astropha": 286,
      "Astrophage": 287,
      "um": 288,
      "way": 289,
      "say": 290,
      "sc": 291,
      "they": 292,
      "ation": 293,
      "time": 294,
      "know": 295,
      "our": 296,
      "ast": 297,
      "po": 298,
      "some": 299,
      "ex": 300,
      "ho": 301,
      "ate": 302,
      "cky": 303,
      "this": 304,
      "Ro": 305,
      "pl": 306,
      "any": 307,
      "ind": 308,
      "ough": 309,
      "pro": 310,
      "tr": 311,
      "there": 312,
      "ship": 313,
      "ant": 314,
      "Wh": 315,
      "said": 316,
      "Rocky": 317,
      "ace": 318,
      "like": 319,
      "fu": 320,
      "ally": 321,
      "very": 322,
      "ound": 323,
      "his": 324,
      "back": 325,
      "ment": 326,
      "!”": 327,
      "les": 328,
      "And": 329,
      "don": 330,
      "om": 331,
      "what": 332,
      "il": 333,
      "ong": 334,
      "We": 335,
      "ill": 336,
      "So": 337,
      "air": 338,
      "You": 339,
      "ine": 340,
      "pre": 341,
      "into": 342,
      "No": 343,
      "ure": 344,
      "other": 345,
      "light": 346,
      "ans": 347,
      "about": 348,
      "am": 349,
      "look": 350,
      "if": 351,
      "would": 352,
      "see": 353,
      "op": 354,
      "ard": 355,
      "ag": 356,
      "them": 357,
      "bo": 358,
      "fo": 359,
      "hand": 360,
      "pp": 361,
      "work": 362,
      "im": 363,
      "ink": 364,
      "ms": 365,
      "att": 366,
      "ep": 367,
      "rid": 368,
      "own": 369,
      "tw": 370,
      "Tau": 371,
      "has": 372,
      "more": 373,
      "ul": 374,
      "ity": 375,
      "will": 376,
      "than": 377,
      "art": 378,
      "side": 379,
      "ble": 380,
      "That": 381,
      "able": 382,
      "est": 383,
      "gen": 384,
      "red": 385,
      "ien": 386,
      "ven": 387,
      "They": 388,
      "off": 389,
      "ive": 390,
      "Erid": 391,
      "ain": 392,
      "tion": 393,
      "comp": 394,
      "right": 395,
      "need": 396,
      "ste": 397,
      "ig": 398,
      "ach": 399,
      "ull": 400,
      "lit": 401,
      "int": 402,
      "by": 403,
      "ap": 404,
      "had": 405,
      "ol": 406,
      "thr": 407,
      "ree": 408,
      "uch": 409,
      "end": 410,
      "ess": 411,
      "che": 412,
      "arth": 413,
      "There": 414,
      "Earth": 415,
      "ba": 416,
      "ight": 417,
      "ous": 418,
      "room": 419,
      "down": 420,
      "over": 421,
      "want": 422,
      "ite": 423,
      "make": 424,
      "ty": 425,
      "tle": 426,
      "ang": 427,
      "ary": 428,
      "did": 429,
      "cont": 430,
      "two": 431,
      "quest": 432,
      "lf": 433,
      "ars": 434,
      "spe": 435,
      "her": 436,
      "nt": 437,
      "lock": 438,
      "question": 439,
      "gra": 440,
      "how": 441,
      "ers": 442,
      "Str": 443,
      "cent": 444,
      "wa": 445,
      "going": 446,
      "urn": 447,
      "dri": 448,
      "ye": 449,
      "Stratt": 450,
      "sto": 451,
      "What": 452,
      "much": 453,
      "little": 454,
      "think": 455,
      "lab": 456,
      "she": 457,
      "could": 458,
      "She": 459,
      "ss": 460,
      "led": 461,
      "moe": 462,
      "gu": 463,
      "moeba": 464,
      "sure": 465,
      "der": 466,
      "put": 467,
      "act": 468,
      "ff": 469,
      "ry": 470,
      "when": 471,
      "This": 472,
      "Taumoeba": 473,
      "ame": 474,
      "sm": 475,
      "vi": 476,
      "does": 477,
      "every": 478,
      "good": 479,
      "cre": 480,
      "long": 481,
      "around": 482,
      "bre": 483,
      "wat": 484,
      "cond": 485,
      "point": 486,
      "ort": 487,
      "Eridi": 488,
      "ail": 489,
      "scre": 490,
      "through": 491,
      "Yes": 492,
      "read": 493,
      "its": 494,
      "ick": 495,
      "contro": 496,
      "mb": 497,
      "their": 498,
      "whi": 499,
      "cy": 500,
      "gr": 501,
      "only": 502,
      "were": 503,
      "head": 504,
      "sl": 505,
      "How": 506,
      "cl": 507,
      "ft": 508,
      "ks": 509,
      "If": 510,
      "control": 511,
      "cle": 512,
      "ves": 513,
      "use": 514,
      "been": 515,
      "day": 516,
      "gy": 517,
      "sy": 518,
      "second": 519,
      "most": 520,
      "min": 521,
      "where": 522,
      "then": 523,
      "lot": 524,
      "turn": 525,
      "ause": 526,
      "plan": 527,
      "tal": 528,
      "ward": 529,
      "even": 530,
      "life": 531,
      "aybe": 532,
      "ably": 533,
      "few": 534,
      "who": 535,
      "ting": 536,
      "eng": 537,
      "scien": 538,
      "fuel": 539,
      "tun": 540,
      "should": 541,
      "take": 542,
      "again": 543,
      "same": 544,
      "screen": 545,
      "fir": 546,
      "come": 547,
      "sur": 548,
      "ters": 549,
      "away": 550,
      "gre": 551,
      "wall": 552,
      "your": 553,
      "says": 554,
      "enough": 555,
      "ass": 556,
      "ade": 557,
      "still": 558,
      "My": 559,
      "car": 560,
      "clo": 561,
      "bl": 562,
      "pan": 563,
      "too": 564,
      "cha": 565,
      "cause": 566,
      "mat": 567,
      "stu": 568,
      "ction": 569,
      "com": 570,
      "nel": 571,
      "something": 572,
      "far": 573,
      "Ok": 574,
      "ts": 575,
      "airlock": 576,
      "Okay": 577,
      "tunnel": 578,
      "ru": 579,
      "ase": 580,
      "bit": 581,
      "tri": 582,
      "fore": 583,
      "hum": 584,
      "made": 585,
      "table": 586,
      "ah": 587,
      "him": 588,
      "tic": 589,
      "flo": 590,
      "sphere": 591,
      "bably": 592,
      "self": 593,
      "Hail": 594,
      "Mary": 595,
      "Why": 596,
      "syste": 597,
      "ak": 598,
      "pull": 599,
      "Then": 600,
      "hold": 601,
      "things": 602,
      "open": 603,
      "ron": 604,
      "happ": 605,
      "sol": 606,
      "years": 607,
      "In": 608,
      "fi": 609,
      "three": 610,
      "unch": 611,
      "find": 612,
      "ated": 613,
      "cted": 614,
      "doesn": 615,
      "mon": 616,
      "set": 617,
      "ki": 618,
      "ob": 619,
      "rest": 620,
      "pres": 621,
      "ose": 622,
      "inside": 623,
      "tell": 624,
      "All": 625,
      "ffe": 626,
      "stand": 627,
      "hull": 628,
      "rov": 629,
      "space": 630,
      "xt": 631,
      "samp": 632,
      "man": 633,
      "ving": 634,
      "another": 635,
      "enon": 636,
      "least": 637,
      "guess": 638,
      "small": 639,
      "first": 640,
      "let": 641,
      "etrov": 642,
      "full": 643,
      "didn": 644,
      "system": 645,
      "Petrov": 646,
      "gl": 647,
      "la": 648,
      "yes": 649,
      "ze": 650,
      "Maybe": 651,
      "got": 652,
      "ies": 653,
      "ens": 654,
      "ot": 655,
      "vity": 656,
      "ener": 657,
      "rogen": 658,
      "under": 659,
      "less": 660,
      "kilo": 661,
      "dis": 662,
      "kes": 663,
      "tor": 664,
      "ave": 665,
      "tty": 666,
      "ator": 667,
      "bet": 668,
      "mis": 669,
      "xenon": 670,
      "panel": 671,
      "line": 672,
      "sun": 673,
      "lip": 674,
      "ople": 675,
      "fl": 676,
      "ance": 677,
      "hands": 678,
      "planet": 679,
      "cal": 680,
      "fin": 681,
      "nit": 682,
      "tain": 683,
      "energy": 684,
      "mi": 685,
      "ved": 686,
      "atmo": 687,
      "ask": 688,
      "spin": 689,
      "crew": 690,
      "00": 691,
      "Ye": 692,
      "igh": 693,
      "pos": 694,
      "ser": 695,
      "meters": 696,
      "while": 697,
      "sle": 698,
      "enti": 699,
      "xenonite": 700,
      "br": 701,
      "hour": 702,
      "ice": 703,
      "vol": 704,
      "before": 705,
      "form": 706,
      "probably": 707,
      "Yeah": 708,
      "ount": 709,
      "mber": 710,
      "stuff": 711,
      "pi": 712,
      "people": 713,
      "anything": 714,
      "fast": 715,
      "king": 716,
      "sion": 717,
      "reme": 718,
      "ature": 719,
      "world": 720,
      "proble": 721,
      "pretty": 722,
      "atmosphere": 723,
      "keep": 724,
      "exper": 725,
      "pa": 726,
      "star": 727,
      "til": 728,
      "Eridian": 729,
      "really": 730,
      "door": 731,
      "suit": 732,
      "Not": 733,
      "An": 734,
      "Go": 735,
      "each": 736,
      "ten": 737,
      "ank": 738,
      "times": 739,
      "bu": 740,
      "fter": 741,
      "spec": 742,
      "arm": 743,
      "gravity": 744,
      "whole": 745,
      "cour": 746,
      "mic": 747,
      "adi": 748,
      "check": 749,
      "ox": 750,
      "ower": 751,
      "cor": 752,
      "name": 753,
      "row": 754,
      "why": 755,
      "cope": 756,
      "Ce": 757,
      "well": 758,
      "nitrogen": 759,
      "Just": 760,
      "left": 761,
      "vel": 762,
      "human": 763,
      "ually": 764,
      "…”": 765,
      "because": 766,
      "ial": 767,
      "rent": 768,
      "atch": 769,
      "top": 770,
      "sha": 771,
      "uter": 772,
      "new": 773,
      "Ceti": 774,
      "part": 775,
      "feel": 776,
      "problem": 777,
      "Adri": 778,
      "start": 779,
      "next": 780,
      "watch": 781,
      "Eridians": 782,
      "course": 783,
      "Adrian": 784,
      "heat": 785,
      "along": 786,
      "enty": 787,
      "sleep": 788,
      "face": 789,
      "gg": 790,
      "Some": 791,
      "des": 792,
      "ris": 793,
      "tra": 794,
      "test": 795,
      "ect": 796,
      "ler": 797,
      "those": 798,
      "toward": 799,
      "hed": 800,
      "und": 801,
      "die": 802,
      "cli": 803,
      "ple": 804,
      "ines": 805,
      "wait": 806,
      "ces": 807,
      "ever": 808,
      "imp": 809,
      "kind": 810,
      "mean": 811,
      "water": 812,
      "av": 813,
      "call": 814,
      "ton": 815,
      "str": 816,
      "ross": 817,
      "never": 818,
      "temp": 819,
      "mag": 820,
      "word": 821,
      "try": 822,
      "minut": 823,
      "Ven": 824,
      "pu": 825,
      "par": 826,
      "arms": 827,
      "half": 828,
      "nothing": 829,
      "main": 830,
      "ready": 831,
      "float": 832,
      "Good": 833,
      "Venus": 834,
      "EV": 835,
      "Oh": 836,
      "bunch": 837,
      "give": 838,
      "ren": 839,
      "food": 840,
      "EVA": 841,
      "Be": 842,
      "aw": 843,
      "four": 844,
      "lt": 845,
      "radi": 846,
      "idea": 847,
      "Well": 848,
      "science": 849,
      "mill": 850,
      "days": 851,
      "eas": 852,
      "diffe": 853,
      "computer": 854,
      "vent": 855,
      "ero": 856,
      "ought": 857,
      "used": 858,
      "seconds": 859,
      "scienti": 860,
      "close": 861,
      "entire": 862,
      "ball": 863,
      "high": 864,
      "rect": 865,
      "gener": 866,
      "breed": 867,
      "pressure": 868,
      "many": 869,
      "six": 870,
      "Petrova": 871,
      "bad": 872,
      "mer": 873,
      "might": 874,
      "move": 875,
      "degre": 876,
      "grams": 877,
      "grab": 878,
      "mission": 879,
      "hours": 880,
      "degrees": 881,
      "age": 882,
      "inter": 883,
      "ange": 884,
      "ition": 885,
      "orbit": 886,
      "alien": 887,
      "show": 888,
      "looked": 889,
      "stop": 890,
      "Blip": 891,
      "big": 892,
      "beet": 893,
      "hot": 894,
      "Or": 895,
      "lat": 896,
      "ning": 897,
      "ense": 898,
      "umb": 899,
      "which": 900,
      "Now": 901,
      "ious": 902,
      "wr": 903,
      "erature": 904,
      "being": 905,
      "unk": 906,
      "sample": 907,
      "bed": 908,
      "took": 909,
      "ical": 910,
      "temperature": 911,
      "ath": 912,
      "lind": 913,
      "must": 914,
      "ped": 915,
      "tory": 916,
      "doing": 917,
      "supp": 918,
      "ody": 919,
      "percent": 920,
      "place": 921,
      "box": 922,
      "cylind": 923,
      "equ": 924,
      "ject": 925,
      "mass": 926,
      "hear": 927,
      "near": 928,
      "ared": 929,
      "ousand": 930,
      "everything": 931,
      "thousand": 932,
      "until": 933,
      "looking": 934,
      "bot": 935,
      "Li": 936,
      "One": 937,
      "body": 938,
      "cur": 939,
      "fall": 940,
      "won": 941,
      "ys": 942,
      "anks": 943,
      "oun": 944,
      "At": 945,
      "Dr": 946,
      "On": 947,
      "ings": 948,
      "ish": 949,
      "rot": 950,
      "loc": 951,
      "myself": 952,
      "contain": 953,
      "ways": 954,
      "atever": 955,
      "clear": 956,
      "undred": 957,
      "bi": 958,
      "cul": 959,
      "ist": 960,
      "ph": 961,
      "power": 962,
      "ue": 963,
      "cell": 964,
      "ately": 965,
      "thrust": 966,
      "happen": 967,
      "understand": 968,
      "different": 969,
      "dd": 970,
      "hard": 971,
      "hundred": 972,
      "isn": 973,
      "moment": 974,
      "paper": 975,
      "Mo": 976,
      "cra": 977,
      "cess": 978,
      "last": 979,
      "requ": 980,
      "means": 981,
      "moni": 982,
      "Do": 983,
      "Every": 984,
      "bon": 985,
      "care": 986,
      "eyes": 987,
      "coll": 988,
      "dead": 989,
      "tape": 990,
      "home": 991,
      "black": 992,
      "ama": 993,
      "eat": 994,
      "iment": 995,
      "run": 996,
      "thought": 997,
      "metal": 998,
      "almost": 999,
      "rifu": 1000,
      "without": 1001,
      "getting": 1002,
      "ext": 1003,
      "actually": 1004,
      "slow": 1005,
      "better": 1006,
      "remember": 1007,
      "ele": 1008,
      "orm": 1009,
      "sho": 1010,
      "wasn": 1011,
      "ful": 1012,
      "asked": 1013,
      "ew": 1014,
      "fing": 1015,
      "ken": 1016,
      "lar": 1017,
      "ned": 1018,
      "sound": 1019,
      "vo": 1020,
      "zero": 1021,
      "area": 1022,
      "makes": 1023,
      "pped": 1024,
      "squ": 1025,
      "medi": 1026,
      "gest": 1027,
      "else": 1028,
      "micro": 1029,
      "minutes": 1030,
      "rifuge": 1031,
      "Gr": 1032,
      "cr": 1033,
      "ates": 1034,
      "add": 1035,
      "both": 1036,
      "angle": 1037,
      "trip": 1038,
      "done": 1039,
      "kill": 1040,
      "low": 1041,
      "med": 1042,
      "aces": 1043,
      "also": 1044,
      "Three": 1045,
      "engines": 1046,
      "formation": 1047,
      "experiment": 1048,
      "Any": 1049,
      "cylinder": 1050,
      "cu": 1051,
      "sit": 1052,
      "—”": 1053,
      "ird": 1054,
      "center": 1055,
      "comes": 1056,
      "As": 1057,
      "Is": 1058,
      "St": 1059,
      "came": 1060,
      "fri": 1061,
      "numb": 1062,
      "pt": 1063,
      "information": 1064,
      "rep": 1065,
      "hel": 1066,
      "across": 1067,
      "logy": 1068,
      "twenty": 1069,
      "After": 1070,
      "evol": 1071,
      "mit": 1072,
      "teen": 1073,
      "ussi": 1074,
      "amer": 1075,
      "chain": 1076,
      "Co": 1077,
      "IR": 1078,
      "Russi": 1079,
      "these": 1080,
      "ason": 1081,
      "lic": 1082,
      "diox": 1083,
      "gets": 1084,
      "comple": 1085,
      "ches": 1086,
      "spect": 1087,
      "Grace": 1088,
      "dioxide": 1089,
      "bay": 1090,
      "ient": 1091,
      "ual": 1092,
      "val": 1093,
      "ider": 1094,
      "gether": 1095,
      "sist": 1096,
      "hope": 1097,
      "working": 1098,
      "needed": 1099,
      "vice": 1100,
      "ength": 1101,
      "carbon": 1102,
      "million": 1103,
      "beetles": 1104,
      "ced": 1105,
      "camer": 1106,
      "five": 1107,
      "sense": 1108,
      "stay": 1109,
      "ark": 1110,
      "seat": 1111,
      "ids": 1112,
      "ash": 1113,
      "abo": 1114,
      "terest": 1115,
      "stead": 1116,
      "kilometers": 1117,
      "scientist": 1118,
      "Bo": 1119,
      "bul": 1120,
      "mind": 1121,
      "ner": 1122,
      "norm": 1123,
      "ump": 1124,
      "llow": 1125,
      "ations": 1126,
      "bring": 1127,
      "Can": 1128,
      "drop": 1129,
      "ild": 1130,
      "oh": 1131,
      "thick": 1132,
      "reason": 1133,
      "together": 1134,
      "ory": 1135,
      "iron": 1136,
      "conne": 1137,
      "div": 1138,
      "ipment": 1139,
      "tap": 1140,
      "apace": 1141,
      "carapace": 1142,
      "climb": 1143,
      "equipment": 1144,
      "For": 1145,
      "dat": 1146,
      "ither": 1147,
      "ina": 1148,
      "return": 1149,
      "force": 1150,
      "okay": 1151,
      "plain": 1152,
      "artment": 1153,
      "ched": 1154,
      "bas": 1155,
      "cou": 1156,
      "clock": 1157,
      "sing": 1158,
      "ence": 1159,
      "ormi": 1160,
      "als": 1161,
      "ution": 1162,
      "fect": 1163,
      "When": 1164,
      "looks": 1165,
      "centrifuge": 1166,
      "kilograms": 1167,
      "bio": 1168,
      "ormitory": 1169,
      "Pro": 1170,
      "app": 1171,
      "after": 1172,
      "cer": 1173,
      "dra": 1174,
      "dormitory": 1175,
      "frequ": 1176,
      "land": 1177,
      "ness": 1178,
      "tanks": 1179,
      "wer": 1180,
      "stra": 1181,
      "meter": 1182,
      "ise": 1183,
      "acce": 1184,
      "live": 1185,
      "exact": 1186,
      "cir": 1187,
      "fic": 1188,
      "found": 1189,
      "hina": 1190,
      "tu": 1191,
      "wo": 1192,
      "lead": 1193,
      "asure": 1194,
      "always": 1195,
      "whatever": 1196,
      "ween": 1197,
      "expe": 1198,
      "handle": 1199,
      "speed": 1200,
      "break": 1201,
      "humans": 1202,
      "floor": 1203,
      "locity": 1204,
      "Dim": 1205,
      "Hum": 1206,
      "hatch": 1207,
      "maybe": 1208,
      "son": 1209,
      "ince": 1210,
      "real": 1211,
      "ses": 1212,
      "spo": 1213,
      "rage": 1214,
      "takes": 1215,
      "sig": 1216,
      "ends": 1217,
      "drives": 1218,
      "wrong": 1219,
      "Like": 1220,
      "data": 1221,
      "frequen": 1222,
      "?!”": 1223,
      "Al": 1224,
      "case": 1225,
      "sme": 1226,
      "vive": 1227,
      "reach": 1228,
      "robot": 1229,
      "ascope": 1230,
      "coma": 1231,
      "dec": 1232,
      "uring": 1233,
      "wouldn": 1234,
      "ground": 1235,
      "survive": 1236,
      "chair": 1237,
      "Petrovascope": 1238,
      "ef": 1239,
      "gas": 1240,
      "hur": 1241,
      "hind": 1242,
      "wind": 1243,
      "iny": 1244,
      "ster": 1245,
      "itri": 1246,
      "hes": 1247,
      "best": 1248,
      "press": 1249,
      "engine": 1250,
      "coming": 1251,
      "between": 1252,
      "desig": 1253,
      "camera": 1254,
      "Dimitri": 1255,
      "eight": 1256,
      "hip": 1257,
      "iz": 1258,
      "ked": 1259,
      "lad": 1260,
      "ted": 1261,
      "vac": 1262,
      "res": 1263,
      "leave": 1264,
      "measure": 1265,
      "sear": 1266,
      "sever": 1267,
      "mode": 1268,
      "save": 1269,
      "tech": 1270,
      "dist": 1271,
      "device": 1272,
      "ically": 1273,
      "explain": 1274,
      "storage": 1275,
      "pointed": 1276,
      "against": 1277,
      "matter": 1278,
      "Because": 1279,
      "complete": 1280,
      "normal": 1281,
      "couple": 1282,
      "du": 1283,
      "ear": 1284,
      "fun": 1285,
      "ith": 1286,
      "os": 1287,
      "uk": 1288,
      "resu": 1289,
      "once": 1290,
      "ating": 1291,
      "tool": 1292,
      "sea": 1293,
      "spot": 1294,
      "tern": 1295,
      "hole": 1296,
      "compartment": 1297,
      "ortant": 1298,
      "finally": 1299,
      "magne": 1300,
      "teresting": 1301,
      "several": 1302,
      "Du": 1303,
      "Ily": 1304,
      "Yá": 1305,
      "ins": 1306,
      "told": 1307,
      "velocity": 1308,
      "cho": 1309,
      "simp": 1310,
      "astron": 1311,
      "amount": 1312,
      "seems": 1313,
      "ience": 1314,
      "wavel": 1315,
      "finite": 1316,
      "important": 1317,
      "easi": 1318,
      "ukhina": 1319,
      "Ilyukhina": 1320,
      "Yáo": 1321,
      "wavelength": 1322,
      "To": 1323,
      "ait": 1324,
      "burn": 1325,
      "ered": 1326,
      "sat": 1327,
      "vis": 1328,
      "viron": 1329,
      "idd": 1330,
      "ides": 1331,
      "assu": 1332,
      "behind": 1333,
      "tether": 1334,
      "math": 1335,
      "perfect": 1336,
      "Nothing": 1337,
      "slide": 1338,
      "happens": 1339,
      "solar": 1340,
      "launch": 1341,
      "vacu": 1342,
      "vironment": 1343,
      "Sp": 1344,
      "bag": 1345,
      "eld": 1346,
      "fine": 1347,
      "fig": 1348,
      "gs": 1349,
      "may": 1350,
      "ygen": 1351,
      "reac": 1352,
      "erial": 1353,
      "environment": 1354,
      "itself": 1355,
      "forward": 1356,
      "iling": 1357,
      "ured": 1358,
      "works": 1359,
      "points": 1360,
      "pie": 1361,
      "correct": 1362,
      "Bois": 1363,
      "acceler": 1364,
      "DuBois": 1365,
      "Ex": 1366,
      "God": 1367,
      "aut": 1368,
      "kids": 1369,
      "pri": 1370,
      "sed": 1371,
      "wal": 1372,
      "heck": 1373,
      "meet": 1374,
      "seen": 1375,
      "alone": 1376,
      "alive": 1377,
      "saw": 1378,
      "feet": 1379,
      "sible": 1380,
      "view": 1381,
      "chamber": 1382,
      "farms": 1383,
      "holds": 1384,
      "flash": 1385,
      "easy": 1386,
      "later": 1387,
      "ladder": 1388,
      "search": 1389,
      "vacuum": 1390,
      "His": 1391,
      "Und": 1392,
      "ai": 1393,
      "ake": 1394,
      "blo": 1395,
      "ctor": 1396,
      "lap": 1397,
      "pat": 1398,
      "pick": 1399,
      "pris": 1400,
      "tank": 1401,
      "ud": 1402,
      "log": 1403,
      "spaces": 1404,
      "safe": 1405,
      "using": 1406,
      "person": 1407,
      "wanted": 1408,
      "month": 1409,
      "fully": 1410,
      "push": 1411,
      "smell": 1412,
      "finitely": 1413,
      ").": 1414,
      "Cel": 1415,
      "Lok": 1416,
      "Re": 1417,
      "Wait": 1418,
      "bra": 1419,
      "count": 1420,
      "fron": 1421,
      "gan": 1422,
      "ger": 1423,
      "nice": 1424,
      "ying": 1425,
      "inch": 1426,
      "ions": 1427,
      "making": 1428,
      "deal": 1429,
      "sius": 1430,
      "pop": 1431,
      "exp": 1432,
      "play": 1433,
      "turned": 1434,
      "talk": 1435,
      "oxygen": 1436,
      "finger": 1437,
      "help": 1438,
      "Celsius": 1439,
      "Lokken": 1440,
      "front": 1441,
      "Are": 1442,
      "Sure": 1443,
      "With": 1444,
      "ago": 1445,
      "bright": 1446,
      "either": 1447,
      "gi": 1448,
      "gone": 1449,
      "hit": 1450,
      "ls": 1451,
      "round": 1452,
      "sof": 1453,
      "zing": 1454,
      "rection": 1455,
      "outh": 1456,
      "stars": 1457,
      "arn": 1458,
      "already": 1459,
      "uni": 1460,
      "within": 1461,
      "astic": 1462,
      "plastic": 1463,
      "brea": 1464,
      "controls": 1465,
      "closer": 1466,
      "material": 1467,
      "ases": 1468,
      "labe": 1469,
      "container": 1470,
      "extreme": 1471,
      "window": 1472,
      "Under": 1473,
      "Lo": 1474,
      "ize": 1475,
      "old": 1476,
      "rate": 1477,
      "rough": 1478,
      "sw": 1479,
      "since": 1480,
      "ude": 1481,
      "though": 1482,
      "ond": 1483,
      "stant": 1484,
      "lea": 1485,
      "ceiling": 1486,
      "sive": 1487,
      "object": 1488,
      "rence": 1489,
      "scientists": 1490,
      "bulb": 1491,
      "sign": 1492,
      "En": 1493,
      "Even": 1494,
      "Se": 1495,
      "amp": 1496,
      "ber": 1497,
      "bunk": 1498,
      "during": 1499,
      "sor": 1500,
      "ances": 1501,
      "remain": 1502,
      "list": 1503,
      "cop": 1504,
      "upid": 1505,
      "definitely": 1506,
      "button": 1507,
      "somewhere": 1508,
      "exc": 1509,
      "ular": 1510,
      "drive": 1511,
      "vious": 1512,
      "cycle": 1513,
      "comm": 1514,
      "sampler": 1515,
      "glass": 1516,
      "support": 1517,
      "Once": 1518,
      "monia": 1519,
      "Russian": 1520,
      "sealed": 1521,
      "Where": 1522,
      "boun": 1523,
      "fle": 1524,
      "hang": 1525,
      "ile": 1526,
      "lu": 1527,
      "nine": 1528,
      "sk": 1529,
      "scope": 1530,
      "incre": 1531,
      "itch": 1532,
      "ors": 1533,
      "roll": 1534,
      "rock": 1535,
      "tive": 1536,
      "change": 1537,
      "outside": 1538,
      "teach": 1539,
      "died": 1540,
      "ics": 1541,
      "anyway": 1542,
      "trans": 1543,
      "answer": 1544,
      "worked": 1545,
      "gram": 1546,
      "wake": 1547,
      "comfor": 1548,
      "obser": 1549,
      "faster": 1550,
      "strong": 1551,
      "radiation": 1552,
      "aboard": 1553,
      "single": 1554,
      "tube": 1555,
      "techno": 1556,
      "10": 1557,
      "Each": 1558,
      "Of": 1559,
      "ca": 1560,
      "fly": 1561,
      "lay": 1562,
      "link": 1563,
      "lves": 1564,
      "mount": 1565,
      "mouth": 1566,
      "pass": 1567,
      "ring": 1568,
      "tiny": 1569,
      "ery": 1570,
      "step": 1571,
      "stick": 1572,
      "seal": 1573,
      "vers": 1574,
      "aren": 1575,
      "goes": 1576,
      "deep": 1577,
      "someone": 1578,
      "steel": 1579,
      "angu": 1580,
      "guy": 1581,
      "clean": 1582,
      "field": 1583,
      "build": 1584,
      "special": 1585,
      "pump": 1586,
      "generator": 1587,
      "shows": 1588,
      "voice": 1589,
      "frequency": 1590,
      "magnetic": 1591,
      "Ab": 1592,
      "det": 1593,
      "ell": 1594,
      "free": 1595,
      "hy": 1596,
      "ible": 1597,
      "jet": 1598,
      "pip": 1599,
      "pain": 1600,
      "thir": 1601,
      "stru": 1602,
      "stupid": 1603,
      "lean": 1604,
      "andom": 1605,
      "till": 1606,
      "chang": 1607,
      "col": 1608,
      "short": 1609,
      "weird": 1610,
      "arely": 1611,
      "text": 1612,
      "direction": 1613,
      "umble": 1614,
      "follow": 1615,
      "ulation": 1616,
      "claw": 1617,
      "position": 1618,
      "species": 1619,
      "monitor": 1620,
      "large": 1621,
      "Anyway": 1622,
      "Probably": 1623,
      "simple": 1624,
      "CO": 1625,
      "Ch": 1626,
      "Let": 1627,
      "Two": 1628,
      "cas": 1629,
      "cles": 1630,
      "ds": 1631,
      "gave": 1632,
      "hu": 1633,
      "langu": 1634,
      "mil": 1635,
      "infe": 1636,
      "resist": 1637,
      "edge": 1638,
      "ached": 1639,
      "utr": 1640,
      "lier": 1641,
      "ents": 1642,
      "rip": 1643,
      "cool": 1644,
      "sub": 1645,
      "ments": 1646,
      "appe": 1647,
      "surface": 1648,
      "surpris": 1649,
      "walls": 1650,
      "carri": 1651,
      "rub": 1652,
      "humanity": 1653,
      "Something": 1654,
      "completely": 1655,
      "Understand": 1656,
      "technology": 1657,
      "Me": 1658,
      "cen": 1659,
      "cut": 1660,
      "dou": 1661,
      "dark": 1662,
      "mar": 1663,
      "prop": 1664,
      "ran": 1665,
      "var": 1666,
      "rele": 1667,
      "repe": 1668,
      "ress": 1669,
      "feed": 1670,
      "umin": 1671,
      "sheet": 1672,
      "stud": 1673,
      "pilot": 1674,
      "gged": 1675,
      "travel": 1676,
      "avy": 1677,
      "bays": 1678,
      "exactly": 1679,
      "distance": 1680,
      "laptop": 1681,
      "spaceship": 1682,
      "labeled": 1683,
      "extremely": 1684,
      "centime": 1685,
      "NA": 1686,
      "Still": 1687,
      "bro": 1688,
      "event": 1689,
      "emit": 1690,
      "lan": 1691,
      "ling": 1692,
      "pen": 1693,
      "past": 1694,
      "random": 1695,
      "sent": 1696,
      "send": 1697,
      "sort": 1698,
      "usu": 1699,
      "went": 1700,
      "yet": 1701,
      "tom": 1702,
      "itude": 1703,
      "organ": 1704,
      "seven": 1705,
      "tight": 1706,
      "nose": 1707,
      "wee": 1708,
      "spend": 1709,
      "Thank": 1710,
      "Hey": 1711,
      "knows": 1712,
      "anymore": 1713,
      "lights": 1714,
      "immedi": 1715,
      "thane": 1716,
      "everyone": 1717,
      "farm": 1718,
      "pulled": 1719,
      "happy": 1720,
      "calcul": 1721,
      "shape": 1722,
      "risk": 1723,
      "scientific": 1724,
      "craft": 1725,
      "Everything": 1726,
      "Threeworld": 1727,
      "months": 1728,
      "brain": 1729,
      "100": 1730,
      "20": 1731,
      "Right": 1732,
      "cab": 1733,
      "glo": 1734,
      "job": 1735,
      "midd": 1736,
      "smo": 1737,
      "xim": 1738,
      "throw": 1739,
      "intell": 1740,
      "resp": 1741,
      "total": 1742,
      "ention": 1743,
      "ities": 1744,
      "ident": 1745,
      "motion": 1746,
      "moving": 1747,
      "soon": 1748,
      "arent": 1749,
      "death": 1750,
      "notes": 1751,
      "ammonia": 1752,
      "thinking": 1753,
      "solid": 1754,
      "solution": 1755,
      "fire": 1756,
      "present": 1757,
      "flat": 1758,
      "posed": 1759,
      "More": 1760,
      "elect": 1761,
      "shook": 1762,
      "number": 1763,
      "numbers": 1764,
      "expected": 1765,
      "astronaut": 1766,
      "language": 1767,
      "immediately": 1768,
      "middle": 1769,
      "Get": 1770,
      "Joh": 1771,
      "Our": 1772,
      "Your": 1773,
      "band": 1774,
      "barely": 1775,
      "ding": 1776,
      "jump": 1777,
      "ping": 1778,
      "range": 1779,
      "slight": 1780,
      "sens": 1781,
      "zy": 1782,
      "reli": 1783,
      "held": 1784,
      "mem": 1785,
      "below": 1786,
      "lie": 1787,
      "liqu": 1788,
      "nodd": 1789,
      "constant": 1790,
      "ram": 1791,
      "diag": 1792,
      "process": 1793,
      "liter": 1794,
      "appro": 1795,
      "contin": 1796,
      "ffic": 1797,
      "longer": 1798,
      "breath": 1799,
      "screw": 1800,
      "readout": 1801,
      "firm": 1802,
      "tablet": 1803,
      "000": 1804,
      "minute": 1805,
      "partic": 1806,
      "rotation": 1807,
      "divider": 1808,
      "assume": 1809,
      "piece": 1810,
      "Look": 1811,
      "John": 1812,
      "Amer": 1813,
      "SA": 1814,
      "Un": 1815,
      "Who": 1816,
      "bly": 1817,
      "effe": 1818,
      "gree": 1819,
      "lts": 1820,
      "mm": 1821,
      "mus": 1822,
      "mate": 1823,
      "mul": 1824,
      "ture": 1825,
      "war": 1826,
      "instead": 1827,
      "interesting": 1828,
      "ering": 1829,
      "hex": 1830,
      "methane": 1831,
      "having": 1832,
      "forth": 1833,
      "rais": 1834,
      "dete": 1835,
      "inese": 1836,
      "attached": 1837,
      "wave": 1838,
      "drift": 1839,
      "mini": 1840,
      "survi": 1841,
      "experience": 1842,
      "called": 1843,
      "supply": 1844,
      "colle": 1845,
      "friend": 1846,
      "evolved": 1847,
      "connected": 1848,
      "design": 1849,
      "earlier": 1850,
      "comfortable": 1851,
      "Chinese": 1852,
      "nodded": 1853,
      "15": 1854,
      "?!": 1855,
      "Con": 1856,
      "Fir": 1857,
      "Same": 1858,
      "bes": 1859,
      "fr": 1860,
      "grow": 1861,
      "ican": 1862,
      "nu": 1863,
      "night": 1864,
      "ray": 1865,
      "wide": 1866,
      "♫♪": 1867,
      "anal": 1868,
      "atus": 1869,
      "atom": 1870,
      "touch": 1871,
      "met": 1872,
      "ided": 1873,
      "cked": 1874,
      "adar": 1875,
      "adjust": 1876,
      "white": 1877,
      "spent": 1878,
      "direct": 1879,
      "size": 1880,
      "produ": 1881,
      "complic": 1882,
      "year": 1883,
      "smaller": 1884,
      "panels": 1885,
      "possible": 1886,
      "tons": 1887,
      "radio": 1888,
      "breeder": 1889,
      "cells": 1890,
      "fingers": 1891,
      "microscope": 1892,
      "Humans": 1893,
      "Also": 1894,
      "easier": 1895,
      "population": 1896,
      "First": 1897,
      "Light": 1898,
      "Wow": 1899,
      "bur": 1900,
      "fac": 1901,
      "fli": 1902,
      "fact": 1903,
      "gin": 1904,
      "gain": 1905,
      "ime": 1906,
      "ili": 1907,
      "xy": 1908,
      "thin": 1909,
      "ani": 1910,
      "rel": 1911,
      "offe": 1912,
      "haven": 1913,
      "separ": 1914,
      "vered": 1915,
      "suic": 1916,
      "ference": 1917,
      "quite": 1918,
      "quick": 1919,
      "cts": 1920,
      "aul": 1921,
      "probe": 1922,
      "needs": 1923,
      "speak": 1924,
      "stood": 1925,
      "fix": 1926,
      "fist": 1927,
      "atmospheres": 1928,
      "current": 1929,
      "phys": 1930,
      "happened": 1931,
      "square": 1932,
      "ized": 1933,
      "blood": 1934,
      "explo": 1935,
      "utrin": 1936,
      "carrier": 1937,
      "ED": 1938,
      "Ho": 1939,
      "Paul": 1940,
      "cap": 1941,
      "fif": 1942,
      "fail": 1943,
      "ga": 1944,
      "ges": 1945,
      "hor": 1946,
      "ie": 1947,
      "mach": 1948,
      "port": 1949,
      "uh": 1950,
      "uff": 1951,
      "third": 1952,
      "stre": 1953,
      "These": 1954,
      "ently": 1955,
      "chance": 1956,
      "note": 1957,
      "cold": 1958,
      "covered": 1959,
      "dots": 1960,
      "Those": 1961,
      "sil": 1962,
      "sick": 1963,
      "prote": 1964,
      "pred": 1965,
      "seem": 1966,
      "foc": 1967,
      "attention": 1968,
      "thanks": 1969,
      "yeah": 1970,
      "couldn": 1971,
      "uses": 1972,
      "spinning": 1973,
      "feeling": 1974,
      "started": 1975,
      "waiting": 1976,
      "avig": 1977,
      "words": 1978,
      "trying": 1979,
      "higher": 1980,
      "stops": 1981,
      "beetle": 1982,
      "dden": 1983,
      "Most": 1984,
      "based": 1985,
      "certain": 1986,
      "Human": 1987,
      "function": 1988,
      "breathe": 1989,
      "excit": 1990,
      "huge": 1991,
      "complicated": 1992,
      "Am": 1993,
      "Much": 1994,
      "Very": 1995,
      "cross": 1996,
      "emp": 1997,
      "jo": 1998,
      "mark": 1999,
      "ps": 2000,
      "pur": 2001,
      "pack": 2002,
      "swe": 2003,
      "sip": 2004,
      "vation": 2005,
      "zo": 2006,
      "thor": 2007,
      "inst": 2008,
      "anim": 2009,
      "research": 2010,
      "refle": 2011,
      "state": 2012,
      "leak": 2013,
      "mess": 2014,
      "order": 2015,
      "lift": 2016,
      "adv": 2017,
      "enter": 2018,
      "moved": 2019,
      "shru": 2020,
      "fell": 2021,
      "dies": 2022,
      "worth": 2023,
      "Whatever": 2024,
      "ended": 2025,
      "everywhere": 2026,
      "gress": 2027,
      "planets": 2028,
      "mist": 2029,
      "shake": 2030,
      "intern": 2031,
      "amazing": 2032,
      "slowly": 2033,
      "Comp": 2034,
      "circle": 2035,
      "leaving": 2036,
      "uminum": 2037,
      "memory": 2038,
      "liquid": 2039,
      "American": 2040,
      "suicide": 2041,
      "predator": 2042,
      "96": 2043,
      "De": 2044,
      "Fin": 2045,
      "Le": 2046,
      "Ms": 2047,
      "Sha": 2048,
      "Time": 2049,
      "dr": 2050,
      "ima": 2051,
      "knew": 2052,
      "oc": 2053,
      "pr": 2054,
      "pow": 2055,
      "ues": 2056,
      "winch": 2057,
      "♫♩": 2058,
      "invent": 2059,
      "relat": 2060,
      "ones": 2061,
      "level": 2062,
      "melt": 2063,
      "aring": 2064,
      "acc": 2065,
      "action": 2066,
      "become": 2067,
      "aluminum": 2068,
      "ung": 2069,
      "kept": 2070,
      "shut": 2071,
      "wel": 2072,
      "weight": 2073,
      "sup": 2074,
      "team": 2075,
      "degree": 2076,
      "scious": 2077,
      "track": 2078,
      "ific": 2079,
      "Eridani": 2080,
      "apart": 2081,
      "waves": 2082,
      "screens": 2083,
      "green": 2084,
      "bottom": 2085,
      "papers": 2086,
      "friends": 2087,
      "acceleration": 2088,
      "commun": 2089,
      "mounted": 2090,
      "repeat": 2091,
      "fficient": 2092,
      "offee": 2093,
      "40": 2094,
      "ER": 2095,
      "Have": 2096,
      "Huh": 2097,
      "Make": 2098,
      "New": 2099,
      "bri": 2100,
      "ci": 2101,
      "ied": 2102,
      "kno": 2103,
      "mine": 2104,
      "mumble": 2105,
      "ror": 2106,
      "sn": 2107,
      "sider": 2108,
      "vap": 2109,
      "zz": 2110,
      "ined": 2111,
      "ane": 2112,
      "onto": 2113,
      "ater": 2114,
      "erc": 2115,
      "itical": 2116,
      "heavy": 2117,
      "arc": 2118,
      "ute": 2119,
      "cks": 2120,
      "absor": 2121,
      "outer": 2122,
      "neck": 2123,
      "neutrin": 2124,
      "sudden": 2125,
      "conscious": 2126,
      "rap": 2127,
      "cting": 2128,
      "lescope": 2129,
      "ility": 2130,
      "ards": 2131,
      "bolt": 2132,
      "fold": 2133,
      "ulous": 2134,
      "talking": 2135,
      "tical": 2136,
      "floats": 2137,
      "breeding": 2138,
      "writ": 2139,
      "medical": 2140,
      "critical": 2141,
      "added": 2142,
      "situ": 2143,
      "spool": 2144,
      "designed": 2145,
      "results": 2146,
      "figure": 2147,
      "infected": 2148,
      "various": 2149,
      "respon": 2150,
      "literally": 2151,
      "particles": 2152,
      "Finally": 2153,
      "image": 2154,
      "vapor": 2155,
      ".’": 2156,
      "Ah": 2157,
      "Ar": 2158,
      "Ring": 2159,
      "aa": 2160,
      "affe": 2161,
      "cat": 2162,
      "coun": 2163,
      "eye": 2164,
      "fra": 2165,
      "hone": 2166,
      "lines": 2167,
      "men": 2168,
      "oper": 2169,
      "rang": 2170,
      "tis": 2171,
      "whe": 2172,
      "wom": 2173,
      "zed": 2174,
      "inet": 2175,
      "inner": 2176,
      "rew": 2177,
      "ouse": 2178,
      "stared": 2179,
      "heard": 2180,
      "ord": 2181,
      "ander": 2182,
      "asse": 2183,
      "fort": 2184,
      "cover": 2185,
      "Thanks": 2186,
      "odd": 2187,
      "urry": 2188,
      "sca": 2189,
      "ational": 2190,
      "progress": 2191,
      "likely": 2192,
      "ages": 2193,
      "tware": 2194,
      "gency": 2195,
      "stell": 2196,
      "wants": 2197,
      "guys": 2198,
      "reads": 2199,
      "shouldn": 2200,
      "great": 2201,
      "opened": 2202,
      "obvious": 2203,
      "glow": 2204,
      "piro": 2205,
      "micron": 2206,
      "cording": 2207,
      "ggle": 2208,
      "rotate": 2209,
      "larger": 2210,
      "experiments": 2211,
      "spectro": 2212,
      "steady": 2213,
      "straight": 2214,
      "visible": 2215,
      "software": 2216,
      "See": 2217,
      "thirty": 2218,
      "astronauts": 2219,
      "diagram": 2220,
      "Shapiro": 2221,
      "Ringo": 2222,
      "18": 2223,
      "AT": 2224,
      "Don": 2225,
      "From": 2226,
      "Sc": 2227,
      "bor": 2228,
      "bal": 2229,
      "brow": 2230,
      "cing": 2231,
      "cand": 2232,
      "ccess": 2233,
      "drogen": 2234,
      "darn": 2235,
      "ey": 2236,
      "emer": 2237,
      "fill": 2238,
      "iled": 2239,
      "imag": 2240,
      "kick": 2241,
      "lower": 2242,
      "mas": 2243,
      "og": 2244,
      "oce": 2245,
      "pho": 2246,
      "titude": 2247,
      "wers": 2248,
      "thro": 2249,
      "ining": 2250,
      "theory": 2251,
      "reg": 2252,
      "heal": 2253,
      "lear": 2254,
      "orig": 2255,
      "asy": 2256,
      "acti": 2257,
      "bead": 2258,
      "lives": 2259,
      "rible": 2260,
      "sole": 2261,
      "irt": 2262,
      "shif": 2263,
      "weigh": 2264,
      "consider": 2265,
      "dig": 2266,
      "iculous": 2267,
      "que": 2268,
      "qual": 2269,
      "ural": 2270,
      "saying": 2271,
      "pool": 2272,
      "foot": 2273,
      "ridiculous": 2274,
      "hadn": 2275,
      "base": 2276,
      "anger": 2277,
      "contact": 2278,
      "smart": 2279,
      "blink": 2280,
      "Interesting": 2281,
      "parts": 2282,
      "entirely": 2283,
      "aliens": 2284,
      "showed": 2285,
      "stopwatch": 2286,
      "nearly": 2287,
      "amage": 2288,
      "gesture": 2289,
      "spectr": 2290,
      "above": 2291,
      "leading": 2292,
      "hurt": 2293,
      "model": 2294,
      "ternal": 2295,
      "ailed": 2296,
      "Engl": 2297,
      "teacher": 2298,
      "hydrogen": 2299,
      "appears": 2300,
      "double": 2301,
      "jumpsuit": 2302,
      "slightly": 2303,
      "directly": 2304,
      "shrugged": 2305,
      "accident": 2306,
      "origin": 2307,
      "415": 2308,
      "82": 2309,
      "Again": 2310,
      "Bad": 2311,
      "Ge": 2312,
      "Lama": 2313,
      "RE": 2314,
      "Tank": 2315,
      "Unit": 2316,
      "catch": 2317,
      "coffee": 2318,
      "damage": 2319,
      "fam": 2320,
      "house": 2321,
      "jor": 2322,
      "ka": 2323,
      "nan": 2324,
      "navig": 2325,
      "sink": 2326,
      "tre": 2327,
      "ume": 2328,
      "rear": 2329,
      "heli": 2330,
      "lever": 2331,
      "ision": 2332,
      "arter": 2333,
      "asks": 2334,
      "altitude": 2335,
      "lies": 2336,
      "forms": 2337,
      "unks": 2338,
      "char": 2339,
      "child": 2340,
      "whis": 2341,
      "spread": 2342,
      "Though": 2343,
      "confirm": 2344,
      "ury": 2345,
      "taking": 2346,
      "plate": 2347,
      "ounds": 2348,
      "ils": 2349,
      "ified": 2350,
      "agree": 2351,
      "chemic": 2352,
      "sym": 2353,
      "mostly": 2354,
      "turns": 2355,
      "closed": 2356,
      "holding": 2357,
      "solute": 2358,
      "samples": 2359,
      "dise": 2360,
      "checked": 2361,
      "corner": 2362,
      "general": 2363,
      "Life": 2364,
      "requi": 2365,
      "taps": 2366,
      "biology": 2367,
      "expect": 2368,
      "effort": 2369,
      "tools": 2370,
      "wavelengths": 2371,
      "figured": 2372,
      "walked": 2373,
      "picked": 2374,
      "soft": 2375,
      "links": 2376,
      "leaned": 2377,
      "resistance": 2378,
      "multi": 2379,
      "raised": 2380,
      "atoms": 2381,
      "empty": 2382,
      "install": 2383,
      "response": 2384,
      "tison": 2385,
      "stellar": 2386,
      "emergency": 2387,
      "throat": 2388,
      "English": 2389,
      "Lamai": 2390,
      "Ano": 2391,
      "Com": 2392,
      "Spe": 2393,
      "Uh": 2394,
      "ax": 2395,
      "bus": 2396,
      "bill": 2397,
      "bble": 2398,
      "cies": 2399,
      "dust": 2400,
      "fur": 2401,
      "fil": 2402,
      "gth": 2403,
      "gunk": 2404,
      "gases": 2405,
      "ix": 2406,
      "iet": 2407,
      "je": 2408,
      "ming": 2409,
      "mmer": 2410,
      "oth": 2411,
      "ome": 2412,
      "pend": 2413,
      "vate": 2414,
      "wid": 2415,
      "wish": 2416,
      "inches": 2417,
      "ons": 2418,
      "ene": 2419,
      "stare": 2420,
      "stren": 2421,
      "itive": 2422,
      "leep": 2423,
      "meal": 2424,
      "orge": 2425,
      "halves": 2426,
      "selves": 2427,
      "iding": 2428,
      "accur": 2429,
      "tice": 2430,
      "wipe": 2431,
      "unit": 2432,
      "mole": 2433,
      "vern": 2434,
      "nowhere": 2435,
      "major": 2436,
      "Heck": 2437,
      "sigh": 2438,
      "pose": 2439,
      "poxy": 2440,
      "plus": 2441,
      "ants": 2442,
      "history": 2443,
      "ilt": 2444,
      "igent": 2445,
      "smack": 2446,
      "smile": 2447,
      "weren": 2448,
      "clamp": 2449,
      "clerc": 2450,
      "surround": 2451,
      "mates": 2452,
      "tried": 2453,
      "systems": 2454,
      "Incorrect": 2455,
      "manual": 2456,
      "volume": 2457,
      "built": 2458,
      "specific": 2459,
      "tested": 2460,
      "maintain": 2461,
      "interstellar": 2462,
      "Orlan": 2463,
      "nearby": 2464,
      "ists": 2465,
      "cub": 2466,
      "Come": 2467,
      "Russians": 2468,
      "Space": 2469,
      "pattern": 2470,
      "udge": 2471,
      "lucky": 2472,
      "changes": 2473,
      "centimeters": 2474,
      "usual": 2475,
      "Leclerc": 2476,
      "powered": 2477,
      "welve": 2478,
      "communic": 2479,
      "absorb": 2480,
      "situation": 2481,
      "nano": 2482,
      "strength": 2483,
      "12": 2484,
      "Ama": 2485,
      "Cent": 2486,
      "DNA": 2487,
      "Easy": 2488,
      "IV": 2489,
      "Pe": 2490,
      "Pl": 2491,
      "Pre": 2492,
      "Will": 2493,
      "aver": 2494,
      "bat": 2495,
      "clip": 2496,
      "em": 2497,
      "efficient": 2498,
      "epoxy": 2499,
      "fer": 2500,
      "flight": 2501,
      "lau": 2502,
      "lation": 2503,
      "lting": 2504,
      "mor": 2505,
      "py": 2506,
      "pok": 2507,
      "pitch": 2508,
      "rup": 2509,
      "sour": 2510,
      "scho": 2511,
      "sides": 2512,
      "yond": 2513,
      "anced": 2514,
      "ert": 2515,
      "status": 2516,
      "arti": 2517,
      "often": 2518,
      "owed": 2519,
      "belie": 2520,
      "aly": 2521,
      "loose": 2522,
      "local": 2523,
      "forty": 2524,
      "chan": 2525,
      "rito": 2526,
      "cept": 2527,
      "success": 2528,
      "govern": 2529,
      "conver": 2530,
      "telescope": 2531,
      "rather": 2532,
      "deck": 2533,
      "butt": 2534,
      "peri": 2535,
      "scra": 2536,
      "ships": 2537,
      "backup": 2538,
      "Sol": 2539,
      "airs": 2540,
      "aircraft": 2541,
      "others": 2542,
      "oppos": 2543,
      "tions": 2544,
      "questions": 2545,
      "graph": 2546,
      "yell": 2547,
      "stopped": 2548,
      "putting": 2549,
      "slurry": 2550,
      "minim": 2551,
      "bling": 2552,
      "pulls": 2553,
      "opening": 2554,
      "atory": 2555,
      "problems": 2556,
      "feels": 2557,
      "watching": 2558,
      "powerful": 2559,
      "happening": 2560,
      "collect": 2561,
      "running": 2562,
      "sounds": 2563,
      "sque": 2564,
      "report": 2565,
      "evolve": 2566,
      "valve": 2567,
      "leads": 2568,
      "spoke": 2569,
      "frequencies": 2570,
      "result": 2571,
      "easily": 2572,
      "blob": 2573,
      "given": 2574,
      "pipe": 2575,
      "texture": 2576,
      "CO2": 2577,
      "milit": 2578,
      "proper": 2579,
      "weeks": 2580,
      "smooth": 2581,
      "intelligent": 2582,
      "constantly": 2583,
      "flick": 2584,
      "supposed": 2585,
      "neutrinos": 2586,
      "massive": 2587,
      "original": 2588,
      "George": 2589,
      "Another": 2590,
      "school": 2591,
      "),": 2592,
      "Bet": 2593,
      "Did": 2594,
      "Gra": 2595,
      "Hmm": 2596,
      "ather": 2597,
      "block": 2598,
      "cow": 2599,
      "cup": 2600,
      "ctive": 2601,
      "eze": 2602,
      "fre": 2603,
      "gon": 2604,
      "gal": 2605,
      "har": 2606,
      "ia": 2607,
      "mal": 2608,
      "ny": 2609,
      "pause": 2610,
      "radar": 2611,
      "scan": 2612,
      "twelve": 2613,
      "warm": 2614,
      "zone": 2615,
      "incl": 2616,
      "anno": 2617,
      "ative": 2618,
      "oud": 2619,
      "stable": 2620,
      "hey": 2621,
      "heart": 2622,
      "legs": 2623,
      "learn": 2624,
      "mes": 2625,
      "mechan": 2626,
      "ism": 2627,
      "sex": 2628,
      "sequ": 2629,
      "esca": 2630,
      "aced": 2631,
      "active": 2632,
      "limit": 2633,
      "myster": 2634,
      "cket": 2635,
      "ades": 2636,
      "units": 2637,
      "ric": 2638,
      "rial": 2639,
      "notice": 2640,
      "necess": 2641,
      "convers": 2642,
      "dest": 2643,
      "quiet": 2644,
      "worse": 2645,
      "auto": 2646,
      "simil": 2647,
      "ument": 2648,
      "plenty": 2649,
      "anyone": 2650,
      "prov": 2651,
      "protons": 2652,
      "aged": 2653,
      "estim": 2654,
      "gence": 2655,
      "type": 2656,
      "stored": 2657,
      "puts": 2658,
      "vial": 2659,
      "watched": 2660,
      "condition": 2661,
      "useful": 2662,
      "shoulder": 2663,
      "findings": 2664,
      "manage": 2665,
      "miss": 2666,
      "slept": 2667,
      "doors": 2668,
      "tests": 2669,
      "gives": 2670,
      "milli": 2671,
      "cular": 2672,
      "Everyone": 2673,
      "evolution": 2674,
      "hurts": 2675,
      "vision": 2676,
      "perfectly": 2677,
      "Spin": 2678,
      "meeting": 2679,
      "switch": 2680,
      "sorry": 2681,
      "remaining": 2682,
      "listen": 2683,
      "Abby": 2684,
      "centimeter": 2685,
      "eventually": 2686,
      "arently": 2687,
      "burrito": 2688,
      "Computer": 2689,
      "♫♩♪": 2690,
      "invented": 2691,
      "relative": 2692,
      "honest": 2693,
      "woman": 2694,
      "spreadsheet": 2695,
      "symbo": 2696,
      "solutely": 2697,
      "escape": 2698,
      "necessary": 2699,
      "similar": 2700,
      "02": 2701,
      "30": 2702,
      "Eat": 2703,
      "Either": 2704,
      "IN": 2705,
      "Man": 2706,
      "ON": 2707,
      "Red": 2708,
      "Ste": 2709,
      "Wor": 2710,
      "aff": 2711,
      "cru": 2712,
      "cial": 2713,
      "ier": 2714,
      "lun": 2715,
      "length": 2716,
      "mble": 2717,
      "patch": 2718,
      "sac": 2719,
      "sad": 2720,
      "tro": 2721,
      "vod": 2722,
      "wri": 2723,
      "yaw": 2724,
      "ancy": 2725,
      "revol": 2726,
      "replace": 2727,
      "ench": 2728,
      "orter": 2729,
      "orient": 2730,
      "issu": 2731,
      "isol": 2732,
      "ished": 2733,
      "rotor": 2734,
      "section": 2735,
      "esome": 2736,
      "begin": 2737,
      "ability": 2738,
      "wild": 2739,
      "chances": 2740,
      "ried": 2741,
      "rical": 2742,
      "sold": 2743,
      "output": 2744,
      "such": 2745,
      "conf": 2746,
      "tee": 2747,
      "pee": 2748,
      "polit": 2749,
      "somehow": 2750,
      "holes": 2751,
      "board": 2752,
      "bodies": 2753,
      "attach": 2754,
      "thank": 2755,
      "compl": 2756,
      "compared": 2757,
      "igno": 2758,
      "ending": 2759,
      "rooms": 2760,
      "hero": 2761,
      "class": 2762,
      "surd": 2763,
      "forever": 2764,
      "himself": 2765,
      "opens": 2766,
      "Inside": 2767,
      "fied": 2768,
      "settle": 2769,
      "tells": 2770,
      "calm": 2771,
      "mito": 2772,
      "keeps": 2773,
      "Ang": 2774,
      "bump": 2775,
      "ggles": 2776,
      "testing": 2777,
      "pleas": 2778,
      "please": 2779,
      "imple": 2780,
      "floating": 2781,
      "awesome": 2782,
      "radiator": 2783,
      "sixteen": 2784,
      "orbital": 2785,
      "thousands": 2786,
      "falling": 2787,
      "wonder": 2788,
      "ysis": 2789,
      "Only": 2790,
      "containers": 2791,
      "clearly": 2792,
      "harder": 2793,
      "crazy": 2794,
      "gestured": 2795,
      "killed": 2796,
      "drops": 2797,
      "biolog": 2798,
      "Project": 2799,
      "reaction": 2800,
      "roughly": 2801,
      "skin": 2802,
      "observe": 2803,
      "building": 2804,
      "claws": 2805,
      "students": 2806,
      "NASA": 2807,
      "usually": 2808,
      "gloves": 2809,
      "ximum": 2810,
      "Looks": 2811,
      "muscles": 2812,
      "Hope": 2813,
      "uffled": 2814,
      "excited": 2815,
      "zoom": 2816,
      "affected": 2817,
      "inety": 2818,
      "scale": 2819,
      "candid": 2820,
      "digit": 2821,
      "qualified": 2822,
      "source": 2823,
      "opposite": 2824,
      "military": 2825,
      "conversation": 2826,
      "automat": 2827,
      "vodka": 2828,
      "17": 2829,
      "25": 2830,
      "Ac": 2831,
      "By": 2832,
      "Four": 2833,
      "Got": 2834,
      "LED": 2835,
      "Over": 2836,
      "Plan": 2837,
      "Six": 2838,
      "Te": 2839,
      "Tw": 2840,
      "Tell": 2841,
      "aim": 2842,
      "bins": 2843,
      "danger": 2844,
      "fy": 2845,
      "fit": 2846,
      "hung": 2847,
      "io": 2848,
      "late": 2849,
      "non": 2850,
      "ninety": 2851,
      "pin": 2852,
      "pit": 2853,
      "pes": 2854,
      "pad": 2855,
      "pus": 2856,
      "task": 2857,
      "wast": 2858,
      "infr": 2859,
      "remo": 2860,
      "reference": 2861,
      "onor": 2862,
      "ondri": 2863,
      "llo": 2864,
      "orth": 2865,
      "velo": 2866,
      "idence": 2867,
      "aside": 2868,
      "belt": 2869,
      "beyond": 2870,
      "alog": 2871,
      "tired": 2872,
      "lost": 2873,
      "love": 2874,
      "unscrew": 2875,
      "chondri": 2876,
      "rive": 2877,
      "noise": 2878,
      "shot": 2879,
      "cep": 2880,
      "dooh": 2881,
      "sug": 2882,
      "suri": 2883,
      "consu": 2884,
      "console": 2885,
      "diction": 2886,
      "deli": 2887,
      "Here": 2888,
      "worry": 2889,
      "aught": 2890,
      "taken": 2891,
      "poke": 2892,
      "plu": 2893,
      "tru": 2894,
      "tran": 2895,
      "true": 2896,
      "mental": 2897,
      "Soon": 2898,
      "answers": 2899,
      "book": 2900,
      "handed": 2901,
      "angles": 2902,
      "smiled": 2903,
      "ickey": 2904,
      "blow": 2905,
      "blast": 2906,
      "panic": 2907,
      "comas": 2908,
      "common": 2909,
      "farther": 2910,
      "triangle": 2911,
      "pressuri": 2912,
      "glue": 2913,
      "lamp": 2914,
      "kilogram": 2915,
      "disc": 2916,
      "final": 2917,
      "possi": 2918,
      "brings": 2919,
      "experien": 2920,
      "path": 2921,
      "gging": 2922,
      "desk": 2923,
      "strange": 2924,
      "difference": 2925,
      "closest": 2926,
      "generation": 2927,
      "movement": 2928,
      "hotter": 2929,
      "elements": 2930,
      "largest": 2931,
      "crack": 2932,
      "addition": 2933,
      "complex": 2934,
      "basically": 2935,
      "decided": 2936,
      "astronom": 2937,
      "bags": 2938,
      "reaches": 2939,
      "pieces": 2940,
      "patient": 2941,
      "brighter": 2942,
      "objects": 2943,
      "bouncing": 2944,
      "observation": 2945,
      "detail": 2946,
      "jettison": 2947,
      "color": 2948,
      "casion": 2949,
      "surprised": 2950,
      "study": 2951,
      "broken": 2952,
      "relief": 2953,
      "related": 2954,
      "separate": 2955,
      "physics": 2956,
      "failure": 2957,
      "machine": 2958,
      "stret": 2959,
      "knock": 2960,
      "Arc": 2961,
      "assemble": 2962,
      "learned": 2963,
      "beads": 2964,
      "whisk": 2965,
      "chemical": 2966,
      "Comm": 2967,
      "axis": 2968,
      "further": 2969,
      "molecu": 2970,
      "Amaze": 2971,
      "Centrifuge": 2972,
      "Plus": 2973,
      "Pretty": 2974,
      "Gravity": 2975,
      "mitochondri": 2976,
      "Twenty": 2977,
      "infrared": 2978,
      "doohickey": 2979,
      "mitochondria": 2980,
      "26": 2981,
      "200": 2982,
      "Air": 2983,
      "Back": 2984,
      "CD": 2985,
      "Fu": 2986,
      "Five": 2987,
      "Happ": 2988,
      "Many": 2989,
      "Nav": 2990,
      "Next": 2991,
      "Po": 2992,
      "Ple": 2993,
      "Ry": 2994,
      "Radar": 2995,
      "Sh": 2996,
      "Sor": 2997,
      "Ship": 2998,
      "TI": 2999,
      "Would": 3000,
      "azz": 3001,
      "bing": 3002,
      "egg": 3003,
      "fair": 3004,
      "gro": 3005,
      "gun": 3006,
      "grip": 3007,
      "igence": 3008,
      "jer": 3009,
      "jazz": 3010,
      "nap": 3011,
      "oct": 3012,
      "pas": 3013,
      "plo": 3014,
      "rit": 3015,
      "sal": 3016,
      "sits": 3017,
      "tes": 3018,
      "twi": 3019,
      "wise": 3020,
      "….”": 3021,
      "threw": 3022,
      "iner": 3023,
      "inde": 3024,
      "invol": 3025,
      "instr": 3026,
      "interest": 3027,
      "thes": 3028,
      "anti": 3029,
      "anom": 3030,
      "react": 3031,
      "rela": 3032,
      "atural": 3033,
      "today": 3034,
      "entical": 3035,
      "station": 3036,
      "lets": 3037,
      "sele": 3038,
      "identi": 3039,
      "identical": 3040,
      "ased": 3041,
      "beep": 3042,
      "alarm": 3043,
      "ties": 3044,
      "Their": 3045,
      "absolutely": 3046,
      "absurd": 3047,
      "unconscious": 3048,
      "chin": 3049,
      "chor": 3050,
      "key": 3051,
      "notic": 3052,
      "verse": 3053,
      "cot": 3054,
      "cel": 3055,
      "super": 3056,
      "feature": 3057,
      "felt": 3058,
      "concer": 3059,
      "tered": 3060,
      "develo": 3061,
      "author": 3062,
      "sched": 3063,
      "poop": 3064,
      "extra": 3065,
      "external": 3066,
      "project": 3067,
      "tract": 3068,
      "previous": 3069,
      "boo": 3070,
      "genes": 3071,
      "redu": 3072,
      "offic": 3073,
      "company": 3074,
      "stepped": 3075,
      "angled": 3076,
      "drill": 3077,
      "yellow": 3078,
      "creep": 3079,
      "breach": 3080,
      "watches": 3081,
      "reading": 3082,
      "controll": 3083,
      "grou": 3084,
      "headed": 3085,
      "slam": 3086,
      "cleared": 3087,
      "syring": 3088,
      "minus": 3089,
      "forehead": 3090,
      "spacecraft": 3091,
      "laun": 3092,
      "ension": 3093,
      "flu": 3094,
      "serious": 3095,
      "ential": 3096,
      "brought": 3097,
      "keeping": 3098,
      "tilt": 3099,
      "rench": 3100,
      "supplies": 3101,
      "location": 3102,
      "phone": 3103,
      "ddy": 3104,
      "craw": 3105,
      "Does": 3106,
      "metals": 3107,
      "eleven": 3108,
      "kills": 3109,
      "sitting": 3110,
      "States": 3111,
      "reporter": 3112,
      "basic": 3113,
      "engineer": 3114,
      "models": 3115,
      "early": 3116,
      "burns": 3117,
      "tethers": 3118,
      "walk": 3119,
      "flashlight": 3120,
      "personal": 3121,
      "signal": 3122,
      "signature": 3123,
      "remains": 3124,
      "incredi": 3125,
      "sticking": 3126,
      "About": 3127,
      "thirteen": 3128,
      "changed": 3129,
      "colors": 3130,
      "surprise": 3131,
      "rubber": 3132,
      "release": 3133,
      "week": 3134,
      "calculator": 3135,
      "electron": 3136,
      "approach": 3137,
      "readouts": 3138,
      "warning": 3139,
      "fifty": 3140,
      "silent": 3141,
      "internal": 3142,
      "microns": 3143,
      "ocean": 3144,
      "United": 3145,
      "navigation": 3146,
      "helicop": 3147,
      "children": 3148,
      "multiple": 3149,
      "accurate": 3150,
      "government": 3151,
      "Better": 3152,
      "sequence": 3153,
      "Planet": 3154,
      "dangerous": 3155,
      "remote": 3156,
      "transp": 3157,
      "possibly": 3158,
      "ArcLight": 3159,
      "Fuel": 3160,
      "Happy": 3161,
      "Please": 3162,
      "Ryland": 3163,
      "Sorry": 3164,
      "relax": 3165,
      "authority": 3166,
      "schedu": 3167,
      "11": 3168,
      "50": 3169,
      "Act": 3170,
      "Afri": 3171,
      "Brow": 3172,
      "Bai": 3173,
      "Des": 3174,
      "LCD": 3175,
      "Ne": 3176,
      "Nine": 3177,
      "Other": 3178,
      "SU": 3179,
      "Su": 3180,
      "Ten": 3181,
      "Vo": 3182,
      "Xi": 3183,
      "apo": 3184,
      "aks": 3185,
      "awake": 3186,
      "bin": 3187,
      "bar": 3188,
      "caught": 3189,
      "een": 3190,
      "emission": 3191,
      "ged": 3192,
      "kn": 3193,
      "kon": 3194,
      "kward": 3195,
      "lack": 3196,
      "mig": 3197,
      "mary": 3198,
      "mably": 3199,
      "na": 3200,
      "pay": 3201,
      "pill": 3202,
      "pure": 3203,
      "ration": 3204,
      "scop": 3205,
      "venty": 3206,
      "zens": 3207,
      "inc": 3208,
      "insu": 3209,
      "insist": 3210,
      "reat": 3211,
      "reed": 3212,
      "reco": 3213,
      "tox": 3214,
      "stri": 3215,
      "hell": 3216,
      "ingly": 3217,
      "metri": 3218,
      "army": 3219,
      "argon": 3220,
      "edges": 3221,
      "sel": 3222,
      "sets": 3223,
      "idi": 3224,
      "asleep": 3225,
      "accent": 3226,
      "uters": 3227,
      "gear": 3228,
      "living": 3229,
      "aby": 3230,
      "chunks": 3231,
      "moon": 3232,
      "modi": 3233,
      "irreg": 3234,
      "shine": 3235,
      "spare": 3236,
      "saving": 3237,
      "Think": 3238,
      "tears": 3239,
      "upper": 3240,
      "maximum": 3241,
      "raise": 3242,
      "delic": 3243,
      "quant": 3244,
      "Hello": 3245,
      "Astron": 3246,
      "tast": 3247,
      "taped": 3248,
      "known": 3249,
      "aster": 3250,
      "pot": 3251,
      "post": 3252,
      "anywhere": 3253,
      "trust": 3254,
      "While": 3255,
      "background": 3256,
      "presu": 3257,
      "seeing": 3258,
      "seemed": 3259,
      "handles": 3260,
      "pping": 3261,
      "imm": 3262,
      "computers": 3263,
      "intended": 3264,
      "chest": 3265,
      "century": 3266,
      "store": 3267,
      "heads": 3268,
      "slower": 3269,
      "slides": 3270,
      "clus": 3271,
      "trick": 3272,
      "aking": 3273,
      "solve": 3274,
      "Instead": 3275,
      "glance": 3276,
      "gotten": 3277,
      "disappears": 3278,
      "sunlight": 3279,
      "volun": 3280,
      "staring": 3281,
      "specul": 3282,
      "named": 3283,
      "shaped": 3284,
      "news": 3285,
      "starting": 3286,
      "desc": 3287,
      "climate": 3288,
      "string": 3289,
      "halfway": 3290,
      "radius": 3291,
      "grabs": 3292,
      "culture": 3293,
      "ister": 3294,
      "hundreds": 3295,
      "eating": 3296,
      "bulk": 3297,
      "minds": 3298,
      "returns": 3299,
      "draw": 3300,
      "tubes": 3301,
      "breakfast": 3302,
      "decision": 3303,
      "gasp": 3304,
      "hurry": 3305,
      "pressed": 3306,
      "primary": 3307,
      "bounce": 3308,
      "bounces": 3309,
      "increase": 3310,
      "rocks": 3311,
      "layer": 3312,
      "steps": 3313,
      "directions": 3314,
      "darkness": 3315,
      "ressed": 3316,
      "cables": 3317,
      "intelligence": 3318,
      "effect": 3319,
      "collection": 3320,
      "Contro": 3321,
      "nuck": 3322,
      "nuclear": 3323,
      "rays": 3324,
      "analysis": 3325,
      "produce": 3326,
      "quickly": 3327,
      "physical": 3328,
      "explosion": 3329,
      "Holy": 3330,
      "focus": 3331,
      "animals": 3332,
      "drink": 3333,
      "occasion": 3334,
      "suddenly": 3335,
      "writing": 3336,
      "written": 3337,
      "counter": 3338,
      "spectrometer": 3339,
      "Science": 3340,
      "spectral": 3341,
      "installed": 3342,
      "billion": 3343,
      "average": 3344,
      "batter": 3345,
      "limited": 3346,
      "estimate": 3347,
      "honestly": 3348,
      "Steve": 3349,
      "sacri": 3350,
      "complain": 3351,
      "candidates": 3352,
      "involved": 3353,
      "noticed": 3354,
      "incredibly": 3355,
      "helicopter": 3356,
      "Browne": 3357,
      "Baikon": 3358,
      "Baikonur": 3359,
      "AN": 3360,
      "Best": 3361,
      "Drive": 3362,
      "Give": 3363,
      "ME": 3364,
      "Ob": 3365,
      "RO": 3366,
      "Radi": 3367,
      "Sup": 3368,
      "Simple": 3369,
      "TO": 3370,
      "Tap": 3371,
      "Turn": 3372,
      "Um": 3373,
      "Use": 3374,
      "ahead": 3375,
      "bow": 3376,
      "bars": 3377,
      "ded": 3378,
      "dru": 3379,
      "eal": 3380,
      "ema": 3381,
      "flip": 3382,
      "ging": 3383,
      "lur": 3384,
      "mad": 3385,
      "nast": 3386,
      "nature": 3387,
      "nie": 3388,
      "natural": 3389,
      "olog": 3390,
      "pha": 3391,
      "pent": 3392,
      "pic": 3393,
      "swi": 3394,
      "ued": 3395,
      "wow": 3396,
      "”—": 3397,
      "thy": 3398,
      "ato": 3399,
      "error": 3400,
      "ouble": 3401,
      "llion": 3402,
      "leg": 3403,
      "lebr": 3404,
      "meat": 3405,
      "meant": 3406,
      "aris": 3407,
      "arant": 3408,
      "hall": 3409,
      "seventy": 3410,
      "vector": 3411,
      "aches": 3412,
      "bean": 3413,
      "alm": 3414,
      "timer": 3415,
      "lose": 3416,
      "load": 3417,
      "loop": 3418,
      "cking": 3419,
      "fortun": 3420,
      "ented": 3421,
      "chart": 3422,
      "coat": 3423,
      "cock": 3424,
      "coast": 3425,
      "irty": 3426,
      "dose": 3427,
      "doctor": 3428,
      "suits": 3429,
      "gosh": 3430,
      "consist": 3431,
      "map": 3432,
      "dic": 3433,
      "diam": 3434,
      "tage": 3435,
      "sight": 3436,
      "uments": 3437,
      "scow": 3438,
      "scri": 3439,
      "exist": 3440,
      "places": 3441,
      "placed": 3442,
      "program": 3443,
      "trouble": 3444,
      "boy": 3445,
      "handholds": 3446,
      "inkill": 3447,
      "hasn": 3448,
      "ulum": 3449,
      "redund": 3450,
      "igt": 3451,
      "ints": 3452,
      "waved": 3453,
      "thinks": 3454,
      "labs": 3455,
      "shelf": 3456,
      "guards": 3457,
      "actual": 3458,
      "smarter": 3459,
      "ailable": 3460,
      "readings": 3461,
      "cycles": 3462,
      "gray": 3463,
      "lots": 3464,
      "turning": 3465,
      "shoulders": 3466,
      "carry": 3467,
      "closet": 3468,
      "matic": 3469,
      "matolog": 3470,
      "rule": 3471,
      "kie": 3472,
      "glad": 3473,
      "law": 3474,
      "ensity": 3475,
      "ators": 3476,
      "spins": 3477,
      "crewmates": 3478,
      "expert": 3479,
      "Annie": 3480,
      "bud": 3481,
      "buddy": 3482,
      "starts": 3483,
      "meaning": 3484,
      "available": 3485,
      "awkward": 3486,
      "fourteen": 3487,
      "vents": 3488,
      "balls": 3489,
      "cylinders": 3490,
      "cury": 3491,
      "deadly": 3492,
      "rung": 3493,
      "cuff": 3494,
      "repair": 3495,
      "millions": 3496,
      "cameras": 3497,
      "Both": 3498,
      "Canadi": 3499,
      "dropped": 3500,
      "drag": 3501,
      "strap": 3502,
      "circles": 3503,
      "hatchway": 3504,
      "realize": 3505,
      "spots": 3506,
      "stern": 3507,
      "explains": 3508,
      "explained": 3509,
      "simply": 3510,
      "amounts": 3511,
      "correctly": 3512,
      "spacesu": 3513,
      "safety": 3514,
      "dealing": 3515,
      "giving": 3516,
      "unique": 3517,
      "windows": 3518,
      "swab": 3519,
      "Eng": 3520,
      "skit": 3521,
      "transfer": 3522,
      "observ": 3523,
      "flying": 3524,
      "sticks": 3525,
      "struction": 3526,
      "casing": 3527,
      "appear": 3528,
      "broad": 3529,
      "approxim": 3530,
      "continues": 3531,
      "raises": 3532,
      "detect": 3533,
      "collected": 3534,
      "horrible": 3535,
      "exciting": 3536,
      "animal": 3537,
      "repeats": 3538,
      "brief": 3539,
      "spools": 3540,
      "vaporize": 3541,
      "catalog": 3542,
      "wheel": 3543,
      "wheeze": 3544,
      "Seems": 3545,
      "imagine": 3546,
      "photo": 3547,
      "accidentally": 3548,
      "charge": 3549,
      "disease": 3550,
      "pendulum": 3551,
      "width": 3552,
      "cubic": 3553,
      "communication": 3554,
      "People": 3555,
      "laugh": 3556,
      "believe": 3557,
      "period": 3558,
      "pauses": 3559,
      "millimeter": 3560,
      "Redell": 3561,
      "lungs": 3562,
      "revolver": 3563,
      "replacement": 3564,
      "pleasant": 3565,
      "According": 3566,
      "waste": 3567,
      "stretch": 3568,
      "Commander": 3569,
      "molecules": 3570,
      "octave": 3571,
      "inerti": 3572,
      "anomaly": 3573,
      "group": 3574,
      "syringe": 3575,
      "crawl": 3576,
      "Actually": 3577,
      "Voigt": 3578,
      "irregular": 3579,
      "presumably": 3580,
      "Control": 3581,
      "nasty": 3582,
      "picture": 3583,
      "arantine": 3584,
      "diamond": 3585,
      "31": 3586,
      "35": 3587,
      "90": 3588,
      "Ant": 3589,
      "Bes": 3590,
      "CI": 3591,
      "Fo": 3592,
      "Fran": 3593,
      "Ger": 3594,
      "Her": 3595,
      "Pri": 3596,
      "Sah": 3597,
      "Ugh": 3598,
      "Was": 3599,
      "Water": 3600,
      "Xenon": 3601,
      "Zeal": 3602,
      "bs": 3603,
      "bom": 3604,
      "cry": 3605,
      "dying": 3606,
      "eu": 3607,
      "fro": 3608,
      "fight": 3609,
      "fav": 3610,
      "gn": 3611,
      "gul": 3612,
      "hits": 3613,
      "ily": 3614,
      "ike": 3615,
      "kit": 3616,
      "knuck": 3617,
      "lid": 3618,
      "mu": 3619,
      "none": 3620,
      "nam": 3621,
      "noun": 3622,
      "ply": 3623,
      "pounds": 3624,
      "rat": 3625,
      "rus": 3626,
      "sco": 3627,
      "sne": 3628,
      "tan": 3629,
      "tur": 3630,
      "tend": 3631,
      "vit": 3632,
      "vag": 3633,
      "wand": 3634,
      "wro": 3635,
      "wob": 3636,
      "wrench": 3637,
      "….": 3638,
      "iness": 3639,
      "remove": 3640,
      "respect": 3641,
      "ouds": 3642,
      "sts": 3643,
      "member": 3644,
      "ories": 3645,
      "isms": 3646,
      "ara": 3647,
      "arry": 3648,
      "rocky": 3649,
      "hammer": 3650,
      "sec": 3651,
      "seed": 3652,
      "seals": 3653,
      "vest": 3654,
      "idual": 3655,
      "allowed": 3656,
      "ady": 3657,
      "forces": 3658,
      "ket": 3659,
      "comb": 3660,
      "shar": 3661,
      "shop": 3662,
      "shiny": 3663,
      "shirt": 3664,
      "shuffled": 3665,
      "weak": 3666,
      "wearing": 3667,
      "weather": 3668,
      "dome": 3669,
      "Thing": 3670,
      "concent": 3671,
      "conference": 3672,
      "conclus": 3673,
      "rail": 3674,
      "terrible": 3675,
      "etal": 3676,
      "dimmer": 3677,
      "dilation": 3678,
      "rope": 3679,
      "quarter": 3680,
      "quarantine": 3681,
      "ourselves": 3682,
      "astero": 3683,
      "explan": 3684,
      "exposed": 3685,
      "plants": 3686,
      "proof": 3687,
      "prey": 3688,
      "ures": 3689,
      "ambi": 3690,
      "ift": 3691,
      "agon": 3692,
      "themselves": 3693,
      "boat": 3694,
      "handhold": 3695,
      "attitude": 3696,
      "Taulight": 3697,
      "ulary": 3698,
      "willing": 3699,
      "geni": 3700,
      "needle": 3701,
      "bye": 3702,
      "chew": 3703,
      "bath": 3704,
      "typed": 3705,
      "angular": 3706,
      "story": 3707,
      "shell": 3708,
      "create": 3709,
      "pointing": 3710,
      "slump": 3711,
      "clouds": 3712,
      "blue": 3713,
      "stuck": 3714,
      "tica": 3715,
      "spheres": 3716,
      "akes": 3717,
      "solved": 3718,
      "standing": 3719,
      "maneu": 3720,
      "glared": 3721,
      "missed": 3722,
      "paused": 3723,
      "painkill": 3724,
      "train": 3725,
      "kinds": 3726,
      "parti": 3727,
      "Beet": 3728,
      "fourth": 3729,
      "grabbed": 3730,
      "showing": 3731,
      "hearing": 3732,
      "contained": 3733,
      "thruster": 3734,
      "runs": 3735,
      "shove": 3736,
      "vocab": 3737,
      "squint": 3738,
      "crank": 3739,
      "curi": 3740,
      "helmet": 3741,
      "teeny": 3742,
      "valves": 3743,
      "reasonable": 3744,
      "apparently": 3745,
      "drawer": 3746,
      "strain": 3747,
      "ficial": 3748,
      "sighed": 3749,
      "Almost": 3750,
      "decide": 3751,
      "sterili": 3752,
      "engineering": 3753,
      "insane": 3754,
      "reactor": 3755,
      "accelerate": 3756,
      "prison": 3757,
      "safely": 3758,
      "pushing": 3759,
      "Ready": 3760,
      "expon": 3761,
      "uniform": 3762,
      "breathing": 3763,
      "buttons": 3764,
      "luck": 3765,
      "rolled": 3766,
      "stronger": 3767,
      "passed": 3768,
      "cleaning": 3769,
      "fields": 3770,
      "struct": 3771,
      "CON": 3772,
      "vari": 3773,
      "calculate": 3774,
      "respond": 3775,
      "Getting": 3776,
      "continue": 3777,
      "effects": 3778,
      "effective": 3779,
      "mming": 3780,
      "drifting": 3781,
      "surviv": 3782,
      "survived": 3783,
      "analy": 3784,
      "touching": 3785,
      "relation": 3786,
      "currently": 3787,
      "certainly": 3788,
      "thorough": 3789,
      "mistake": 3790,
      "prof": 3791,
      "arctica": 3792,
      "neckl": 3793,
      "vaporized": 3794,
      "frame": 3795,
      "operate": 3796,
      "covering": 3797,
      "born": 3798,
      "healthy": 3799,
      "activate": 3800,
      "shift": 3801,
      "weighs": 3802,
      "spectrum": 3803,
      "diseases": 3804,
      "require": 3805,
      "busy": 3806,
      "filter": 3807,
      "surrounded": 3808,
      "scrape": 3809,
      "includ": 3810,
      "annoying": 3811,
      "conditions": 3812,
      "ignore": 3813,
      "digital": 3814,
      "suggest": 3815,
      "dictionary": 3816,
      "lamps": 3817,
      "experienced": 3818,
      "eggs": 3819,
      "identify": 3820,
      "controlled": 3821,
      "Africa": 3822,
      "recogn": 3823,
      "toxic": 3824,
      "volunte": 3825,
      "email": 3826,
      "cockpit": 3827,
      "Antarctica": 3828,
      "Besides": 3829,
      "Food": 3830,
      "Sahara": 3831,
      "Zealand": 3832,
      "favor": 3833,
      "wrote": 3834,
      "ambient": 3835,
      "maneuver": 3836,
      "vocabulary": 3837,
      "recognize": 3838,
      "..": 3839,
      "60": 3840,
      "AL": 3841,
      "Ali": 3842,
      "Cor": 3843,
      "EM": 3844,
      "Eu": 3845,
      "ESA": 3846,
      "Fort": 3847,
      "Ha": 3848,
      "Hal": 3849,
      "Jet": 3850,
      "Kind": 3851,
      "Lab": 3852,
      "Less": 3853,
      "Larry": 3854,
      "Mr": 3855,
      "Min": 3856,
      "Must": 3857,
      "Mic": 3858,
      "Nice": 3859,
      "Norm": 3860,
      "Out": 3861,
      "Open": 3862,
      "San": 3863,
      "Samp": 3864,
      "Trang": 3865,
      "Wha": 3866,
      "Want": 3867,
      "axy": 3868,
      "bles": 3869,
      "bother": 3870,
      "blot": 3871,
      "bench": 3872,
      "cis": 3873,
      "cro": 3874,
      "da": 3875,
      "dre": 3876,
      "dry": 3877,
      "density": 3878,
      "fid": 3879,
      "fying": 3880,
      "failed": 3881,
      "gam": 3882,
      "gross": 3883,
      "ium": 3884,
      "ilet": 3885,
      "ivity": 3886,
      "jour": 3887,
      "junk": 3888,
      "ky": 3889,
      "kid": 3890,
      "lou": 3891,
      "mbe": 3892,
      "nis": 3893,
      "nic": 3894,
      "oled": 3895,
      "por": 3896,
      "pite": 3897,
      "pron": 3898,
      "rout": 3899,
      "tangled": 3900,
      "ug": 3901,
      "uz": 3902,
      "uck": 3903,
      "vic": 3904,
      "ya": 3905,
      "yed": 3906,
      "yuz": 3907,
      "zer": 3908,
      "zen": 3909,
      "’?”": 3910,
      "threat": 3911,
      "inct": 3912,
      "ination": 3913,
      "inction": 3914,
      "indiv": 3915,
      "instant": 3916,
      "ancho": 3917,
      "anchor": 3918,
      "recor": 3919,
      "review": 3920,
      "reproduce": 3921,
      "atic": 3922,
      "toga": 3923,
      "oules": 3924,
      "stairs": 3925,
      "staff": 3926,
      "leap": 3927,
      "meth": 3928,
      "melting": 3929,
      "orch": 3930,
      "isel": 3931,
      "array": 3932,
      "road": 3933,
      "beer": 3934,
      "becomes": 3935,
      "became": 3936,
      "liz": 3937,
      "tie": 3938,
      "allow": 3939,
      "loss": 3940,
      "wires": 3941,
      "wiggles": 3942,
      "unt": 3943,
      "unlike": 3944,
      "unately": 3945,
      "unlikely": 3946,
      "unfortun": 3947,
      "chunk": 3948,
      "chisel": 3949,
      "mold": 3950,
      "ries": 3951,
      "soot": 3952,
      "net": 3953,
      "ney": 3954,
      "neigh": 3955,
      "shi": 3956,
      "celebr": 3957,
      "wear": 3958,
      "spher": 3959,
      "suff": 3960,
      "sage": 3961,
      "uster": 3962,
      "Thirty": 3963,
      "confir": 3964,
      "rails": 3965,
      "term": 3966,
      "terror": 3967,
      "diame": 3968,
      "digest": 3969,
      "dee": 3970,
      "dered": 3971,
      "peer": 3972,
      "pezo": 3973,
      "justice": 3974,
      "tapped": 3975,
      "ummy": 3976,
      "scr": 3977,
      "knowing": 3978,
      "aston": 3979,
      "pocket": 3980,
      "exha": 3981,
      "express": 3982,
      "hook": 3983,
      "Rot": 3984,
      "prove": 3985,
      "proced": 3986,
      "trace": 3987,
      "backward": 3988,
      "Soyuz": 3989,
      "prep": 3990,
      "amn": 3991,
      "option": 3992,
      "handy": 3993,
      "handcuff": 3994,
      "workbench": 3995,
      "ulti": 3996,
      "ulsion": 3997,
      "offline": 3998,
      "steam": 3999,
      "ign": 4000,
      "thrum": 4001,
      "stool": 4002,
      "ledge": 4003,
      "via": 4004,
      "crest": 4005,
      "scream": 4006,
      "grad": 4007,
      "slid": 4008,
      "However": 4009,
      "cluster": 4010,
      "vessel": 4011,
      "useless": 4012,
      "clothes": 4013,
      "rush": 4014,
      "tries": 4015,
      "trial": 4016,
      "trillion": 4017,
      "setting": 4018,
      "restra": 4019,
      "restrial": 4020,
      "president": 4021,
      "smallest": 4022,
      "kilometer": 4023,
      "display": 4024,
      "disaster": 4025,
      "lips": 4026,
      "finish": 4027,
      "mia": 4028,
      "miles": 4029,
      "atmospher": 4030,
      "serve": 4031,
      "bris": 4032,
      "worlds": 4033,
      "tennis": 4034,
      "checking": 4035,
      "names": 4036,
      "shared": 4037,
      "shapes": 4038,
      "heater": 4039,
      "heating": 4040,
      "Someone": 4041,
      "Sometimes": 4042,
      "training": 4043,
      "trapezo": 4044,
      "climatolog": 4045,
      "calling": 4046,
      "EVAs": 4047,
      "Before": 4048,
      "iously": 4049,
      "boxes": 4050,
      "equal": 4051,
      "thousandth": 4052,
      "falls": 4053,
      "rotates": 4054,
      "celled": 4055,
      "crap": 4056,
      "careful": 4057,
      "carefully": 4058,
      "medium": 4059,
      "microscop": 4060,
      "Status": 4061,
      "helped": 4062,
      "value": 4063,
      "stayed": 4064,
      "connect": 4065,
      "connector": 4066,
      "connecting": 4067,
      "biosphere": 4068,
      "landing": 4069,
      "landed": 4070,
      "woke": 4071,
      "sonar": 4072,
      "Always": 4073,
      "resour": 4074,
      "ossible": 4075,
      "magnets": 4076,
      "choice": 4077,
      "assumed": 4078,
      "reached": 4079,
      "accelerating": 4080,
      "Excel": 4081,
      "prior": 4082,
      "Really": 4083,
      "pops": 4084,
      "playing": 4085,
      "Without": 4086,
      "hitting": 4087,
      "materials": 4088,
      "Lots": 4089,
      "ancestor": 4090,
      "copy": 4091,
      "command": 4092,
      "hangs": 4093,
      "sky": 4094,
      "rocket": 4095,
      "specialist": 4096,
      "detach": 4097,
      "detailed": 4098,
      "umbled": 4099,
      "followed": 4100,
      "subject": 4101,
      "releases": 4102,
      "released": 4103,
      "sheets": 4104,
      "broke": 4105,
      "emitted": 4106,
      "organisms": 4107,
      "global": 4108,
      "electric": 4109,
      "sensitive": 4110,
      "reliable": 4111,
      "detected": 4112,
      "growing": 4113,
      "production": 4114,
      "iliar": 4115,
      "capsu": 4116,
      "gae": 4117,
      "colder": 4118,
      "protection": 4119,
      "focused": 4120,
      "Mostly": 4121,
      "Ammonia": 4122,
      "purpose": 4123,
      "package": 4124,
      "reflected": 4125,
      "leaking": 4126,
      "international": 4127,
      "predators": 4128,
      "drum": 4129,
      "folded": 4130,
      "ordin": 4131,
      "assemb": 4132,
      "obviously": 4133,
      "Scien": 4134,
      "boring": 4135,
      "oceans": 4136,
      "activ": 4137,
      "familiar": 4138,
      "treat": 4139,
      "emits": 4140,
      "morning": 4141,
      "poking": 4142,
      "artificial": 4143,
      "minimum": 4144,
      "reports": 4145,
      "fresh": 4146,
      "galaxy": 4147,
      "mechanical": 4148,
      "mystery": 4149,
      "destro": 4150,
      "symbol": 4151,
      "symbols": 4152,
      "wildly": 4153,
      "polite": 4154,
      "Angular": 4155,
      "biological": 4156,
      "automated": 4157,
      "pushed": 4158,
      "deliber": 4159,
      "pressurize": 4160,
      "astronomers": 4161,
      "assembled": 4162,
      "Should": 4163,
      "TION": 4164,
      "groan": 4165,
      "twice": 4166,
      "instruments": 4167,
      "cotton": 4168,
      "schedule": 4169,
      "incidence": 4170,
      "metric": 4171,
      "delicate": 4172,
      "Astronaut": 4173,
      "battery": 4174,
      "Turns": 4175,
      "charts": 4176,
      "observations": 4177,
      "Francis": 4178,
      "German": 4179,
      "Xenonite": 4180,
      "knuckles": 4181,
      "vague": 4182,
      "explanation": 4183,
      "painkillers": 4184,
      "Beetles": 4185,
      "relationship": 4186,
      "Europe": 4187,
      "Fortunately": 4188,
      "fidget": 4189,
      "individual": 4190,
      "anchored": 4191,
      "diameter": 4192,
      "atmospheric": 4193,
      "trapezoid": 4194,
      "Francisco": 4195,
      "120": 4196,
      "210": 4197,
      "400": 4198,
      "500": 4199,
      "71": 4200,
      "80": 4201,
      "AX": 4202,
      "App": 4203,
      "Bas": 4204,
      "Bay": 4205,
      "Bel": 4206,
      "CT": 4207,
      "Could": 4208,
      "China": 4209,
      "CER": 4210,
      "During": 4211,
      "EN": 4212,
      "Evol": 4213,
      "Easton": 4214,
      "Hang": 4215,
      "Hatch": 4216,
      "Honor": 4217,
      "Imag": 4218,
      "JAX": 4219,
      "Mer": 4220,
      "Mars": 4221,
      "Nit": 4222,
      "Never": 4223,
      "Navy": 4224,
      "North": 4225,
      "Per": 4226,
      "Put": 4227,
      "Pop": 4228,
      "Sm": 4229,
      "Ser": 4230,
      "Set": 4231,
      "Seven": 4232,
      "Save": 4233,
      "Stop": 4234,
      "Slow": 4235,
      "Spool": 4236,
      "Sleep": 4237,
      "Torch": 4238,
      "Ve": 4239,
      "Vel": 4240,
      "Wel": 4241,
      "apped": 4242,
      "afra": 4243,
      "bt": 4244,
      "bull": 4245,
      "bits": 4246,
      "cus": 4247,
      "cable": 4248,
      "dro": 4249,
      "dense": 4250,
      "dumb": 4251,
      "eco": 4252,
      "ears": 4253,
      "echo": 4254,
      "emotion": 4255,
      "frow": 4256,
      "gli": 4257,
      "gust": 4258,
      "game": 4259,
      "ghed": 4260,
      "gently": 4261,
      "hust": 4262,
      "harm": 4263,
      "honor": 4264,
      "ik": 4265,
      "icon": 4266,
      "jung": 4267,
      "lon": 4268,
      "latch": 4269,
      "loud": 4270,
      "mand": 4271,
      "mut": 4272,
      "ns": 4273,
      "nick": 4274,
      "ole": 4275,
      "osh": 4276,
      "pou": 4277,
      "prom": 4278,
      "pair": 4279,
      "parent": 4280,
      "rare": 4281,
      "rated": 4282,
      "sen": 4283,
      "slo": 4284,
      "song": 4285,
      "tti": 4286,
      "vide": 4287,
      "wince": 4288,
      "yp": 4289,
      "zes": 4290,
      "zip": 4291,
      "—“": 4292,
      "“♪": 4293,
      "“♫♪": 4294,
      "♫.”": 4295,
      "thread": 4296,
      "inj": 4297,
      "input": 4298,
      "infect": 4299,
      "indic": 4300,
      "antic": 4301,
      "antage": 4302,
      "rely": 4303,
      "reck": 4304,
      "request": 4305,
      "refuel": 4306,
      "resolution": 4307,
      "represent": 4308,
      "replaced": 4309,
      "online": 4310,
      "tou": 4311,
      "tower": 4312,
      "toilet": 4313,
      "enar": 4314,
      "enri": 4315,
      "enjo": 4316,
      "sty": 4317,
      "stic": 4318,
      "hea": 4319,
      "metic": 4320,
      "ising": 4321,
      "ishes": 4322,
      "aran": 4323,
      "hair": 4324,
      "secre": 4325,
      "asing": 4326,
      "acing": 4327,
      "access": 4328,
      "account": 4329,
      "according": 4330,
      "beat": 4331,
      "began": 4332,
      "bezz": 4333,
      "algae": 4334,
      "utter": 4335,
      "gee": 4336,
      "allo": 4337,
      "wiggle": 4338,
      "advent": 4339,
      "admit": 4340,
      "forced": 4341,
      "entered": 4342,
      "une": 4343,
      "chy": 4344,
      "chrom": 4345,
      "chop": 4346,
      "chord": 4347,
      "moves": 4348,
      "motor": 4349,
      "rill": 4350,
      "riate": 4351,
      "nod": 4352,
      "whip": 4353,
      "coincidence": 4354,
      "neare": 4355,
      "neath": 4356,
      "shu": 4357,
      "ceive": 4358,
      "celer": 4359,
      "doc": 4360,
      "dot": 4361,
      "doll": 4362,
      "domin": 4363,
      "spit": 4364,
      "spike": 4365,
      "areas": 4366,
      "sulf": 4367,
      "goggles": 4368,
      "Things": 4369,
      "cone": 4370,
      "concept": 4371,
      "upside": 4372,
      "terri": 4373,
      "dim": 4374,
      "dial": 4375,
      "def": 4376,
      "decomp": 4377,
      "debris": 4378,
      "demand": 4379,
      "ropriate": 4380,
      "urge": 4381,
      "ideas": 4382,
      "usion": 4383,
      "worst": 4384,
      "taste": 4385,
      "simul": 4386,
      "sche": 4387,
      "scary": 4388,
      "scamp": 4389,
      "scenar": 4390,
      "knowledge": 4391,
      "somewhat": 4392,
      "extr": 4393,
      "atest": 4394,
      "plant": 4395,
      "indust": 4396,
      "proto": 4397,
      "thered": 4398,
      "fuse": 4399,
      "ilities": 4400,
      "illions": 4401,
      "airtight": 4402,
      "opin": 4403,
      "options": 4404,
      "ppy": 4405,
      "ulated": 4406,
      "blew": 4407,
      "gene": 4408,
      "apartment": 4409,
      "ession": 4410,
      "chemist": 4411,
      "ously": 4412,
      "items": 4413,
      "content": 4414,
      "herself": 4415,
      "however": 4416,
      "centrip": 4417,
      "stores": 4418,
      "stomach": 4419,
      "labor": 4420,
      "sheer": 4421,
      "guaran": 4422,
      "pute": 4423,
      "goodbye": 4424,
      "clunk": 4425,
      "clump": 4426,
      "clench": 4427,
      "clever": 4428,
      "minor": 4429,
      "plane": 4430,
      "greatest": 4431,
      "blan": 4432,
      "ruined": 4433,
      "tics": 4434,
      "flood": 4435,
      "pulling": 4436,
      "stands": 4437,
      "lessly": 4438,
      "discovered": 4439,
      "dismiss": 4440,
      "disgust": 4441,
      "dispute": 4442,
      "sunspots": 4443,
      "flow": 4444,
      "flare": 4445,
      "flag": 4446,
      "planetary": 4447,
      "calyp": 4448,
      "asking": 4449,
      "pile": 4450,
      "remembe": 4451,
      "tilts": 4452,
      "tilted": 4453,
      "ankly": 4454,
      "desper": 4455,
      "click": 4456,
      "clicks": 4457,
      "calls": 4458,
      "parall": 4459,
      "aware": 4460,
      "venteen": 4461,
      "highly": 4462,
      "interact": 4463,
      "bigger": 4464,
      "enses": 4465,
      "beds": 4466,
      "curity": 4467,
      "culatory": 4468,
      "cellent": 4469,
      "thrusting": 4470,
      "understands": 4471,
      "understanding": 4472,
      "Dozens": 4473,
      "cares": 4474,
      "career": 4475,
      "collide": 4476,
      "collap": 4477,
      "blackness": 4478,
      "blackpanels": 4479,
      "extinction": 4480,
      "void": 4481,
      "squirt": 4482,
      "microbes": 4483,
      "Anything": 4484,
      "cube": 4485,
      "Stand": 4486,
      "Stay": 4487,
      "reply": 4488,
      "Russia": 4489,
      "valent": 4490,
      "normally": 4491,
      "divided": 4492,
      "climbing": 4493,
      "returning": 4494,
      "appropriate": 4495,
      "drawers": 4496,
      "straps": 4497,
      "accept": 4498,
      "circular": 4499,
      "circulatory": 4500,
      "wood": 4501,
      "smear": 4502,
      "reaching": 4503,
      "decades": 4504,
      "grounds": 4505,
      "engineers": 4506,
      "izon": 4507,
      "duct": 4508,
      "burned": 4509,
      "assump": 4510,
      "External": 4511,
      "prime": 4512,
      "private": 4513,
      "meetings": 4514,
      "smells": 4515,
      "played": 4516,
      "univers": 4517,
      "breaks": 4518,
      "label": 4519,
      "leaves": 4520,
      "excuse": 4521,
      "hangar": 4522,
      "pipes": 4523,
      "infection": 4524,
      "resistant": 4525,
      "subst": 4526,
      "surprisingly": 4527,
      "Mean": 4528,
      "propulsion": 4529,
      "repeated": 4530,
      "penet": 4531,
      "organism": 4532,
      "cabinet": 4533,
      "bands": 4534,
      "continued": 4535,
      "firmly": 4536,
      "particular": 4537,
      "Unlike": 4538,
      "analog": 4539,
      "adjustment": 4540,
      "facing": 4541,
      "explore": 4542,
      "fifteen": 4543,
      "horizon": 4544,
      "silence": 4545,
      "proteins": 4546,
      "functional": 4547,
      "pursed": 4548,
      "sweep": 4549,
      "advance": 4550,
      "advanced": 4551,
      "advantage": 4552,
      "Dead": 4553,
      "occur": 4554,
      "civi": 4555,
      "aterrestrial": 4556,
      "eyebrow": 4557,
      "180": 4558,
      "filled": 4559,
      "shifts": 4560,
      "considering": 4561,
      "required": 4562,
      "business": 4563,
      "filters": 4564,
      "surrounding": 4565,
      "communicate": 4566,
      "embezz": 4567,
      "convert": 4568,
      "yelled": 4569,
      "properly": 4570,
      "harvest": 4571,
      "provide": 4572,
      "oriented": 4573,
      "issue": 4574,
      "issues": 4575,
      "beginning": 4576,
      "soldier": 4577,
      "confused": 4578,
      "peek": 4579,
      "heroin": 4580,
      "Hopefully": 4581,
      "hungry": 4582,
      "truly": 4583,
      "books": 4584,
      "additional": 4585,
      "patients": 4586,
      "whisker": 4587,
      "whiskers": 4588,
      "passes": 4589,
      "salvation": 4590,
      "develop": 4591,
      "creepy": 4592,
      "launched": 4593,
      "Doesn": 4594,
      "transparent": 4595,
      "Desert": 4596,
      "apocalyp": 4597,
      "emissions": 4598,
      "insisted": 4599,
      "idiot": 4600,
      "immune": 4601,
      "speculate": 4602,
      "Support": 4603,
      "drugs": 4604,
      "pentagon": 4605,
      "beanbag": 4606,
      "consistent": 4607,
      "scowled": 4608,
      "redundancy": 4609,
      "budge": 4610,
      "spacesuit": 4611,
      "skitters": 4612,
      "inertia": 4613,
      "bomb": 4614,
      "rushes": 4615,
      "conclusions": 4616,
      "asteroid": 4617,
      "genius": 4618,
      "bathroom": 4619,
      "curious": 4620,
      "exponential": 4621,
      "necklace": 4622,
      "including": 4623,
      "Half": 4624,
      "Normally": 4625,
      "damag": 4626,
      "dream": 4627,
      "journey": 4628,
      "louder": 4629,
      "unfortunately": 4630,
      "network": 4631,
      "exhaust": 4632,
      "handcuffs": 4633,
      "restraints": 4634,
      "resources": 4635,
      "Scienti": 4636,
      "activated": 4637,
      "deliberately": 4638,
      "Astronauts": 4639,
      "Apparently": 4640,
      "Basically": 4641,
      "CERN": 4642,
      "Imagine": 4643,
      "JAXA": 4644,
      "Mercury": 4645,
      "Nitrogen": 4646,
      "Seriously": 4647,
      "Velocity": 4648,
      "Velcro": 4649,
      "Welcome": 4650,
      "afraid": 4651,
      "video": 4652,
      "chopper": 4653,
      "nearest": 4654,
      "sulfur": 4655,
      "extraterrestrial": 4656,
      "centripetal": 4657,
      "remembered": 4658,
      "!!": 4659,
      ".)": 4660,
      "19": 4661,
      "29": 4662,
      "217": 4663,
      "33": 4664,
      "34": 4665,
      "45": 4666,
      "62": 4667,
      "?)": 4668,
      "AU": 4669,
      "Agree": 4670,
      "BL": 4671,
      "BO": 4672,
      "Big": 4673,
      "Bob": 4674,
      "Breed": 4675,
      "Cur": 4676,
      "Check": 4677,
      "Clean": 4678,
      "Down": 4679,
      "Ele": 4680,
      "Eight": 4681,
      "Espec": 4682,
      "Event": 4683,
      "Har": 4684,
      "Hard": 4685,
      "High": 4686,
      "Hold": 4687,
      "IS": 4688,
      "Iron": 4689,
      "Jap": 4690,
      "Joules": 4691,
      "La": 4692,
      "Lu": 4693,
      "Ma": 4694,
      "Might": 4695,
      "Maris": 4696,
      "Navig": 4697,
      "Old": 4698,
      "Ph": 4699,
      "Pred": 4700,
      "Sad": 4701,
      "Sever": 4702,
      "Since": 4703,
      "TV": 4704,
      "TY": 4705,
      "Tod": 4706,
      "Take": 4707,
      "TRO": 4708,
      "Way": 4709,
      "Zero": 4710,
      "ape": 4711,
      "aper": 4712,
      "aque": 4713,
      "bac": 4714,
      "bend": 4715,
      "blip": 4716,
      "baby": 4717,
      "crop": 4718,
      "cum": 4719,
      "cast": 4720,
      "cave": 4721,
      "dy": 4722,
      "dar": 4723,
      "dur": 4724,
      "dull": 4725,
      "dai": 4726,
      "eled": 4727,
      "ection": 4728,
      "fat": 4729,
      "fain": 4730,
      "furn": 4731,
      "fund": 4732,
      "faces": 4733,
      "fidd": 4734,
      "gent": 4735,
      "gri": 4736,
      "gau": 4737,
      "gap": 4738,
      "gang": 4739,
      "ggy": 4740,
      "gins": 4741,
      "hh": 4742,
      "hi": 4743,
      "hing": 4744,
      "hide": 4745,
      "hint": 4746,
      "ian": 4747,
      "iant": 4748,
      "ially": 4749,
      "ians": 4750,
      "ivalent": 4751,
      "kne": 4752,
      "kidd": 4753,
      "las": 4754,
      "mir": 4755,
      "matt": 4756,
      "mask": 4757,
      "muffled": 4758,
      "ng": 4759,
      "ov": 4760,
      "oid": 4761,
      "oil": 4762,
      "oval": 4763,
      "pant": 4764,
      "psy": 4765,
      "pages": 4766,
      "palm": 4767,
      "ral": 4768,
      "ratt": 4769,
      "sand": 4770,
      "sir": 4771,
      "skills": 4772,
      "tit": 4773,
      "va": 4774,
      "vast": 4775,
      "vant": 4776,
      "wis": 4777,
      "wound": 4778,
      "wrap": 4779,
      "“♩": 4780,
      "…?”": 4781,
      "ℓℓ": 4782,
      "thumb": 4783,
      "info": 4784,
      "inward": 4785,
      "inser": 4786,
      "announ": 4787,
      "reve": 4788,
      "resc": 4789,
      "removed": 4790,
      "attract": 4791,
      "erly": 4792,
      "toff": 4793,
      "ening": 4794,
      "ensure": 4795,
      "encer": 4796,
      "enna": 4797,
      "stab": 4798,
      "stim": 4799,
      "iti": 4800,
      "iter": 4801,
      "hetti": 4802,
      "lly": 4803,
      "llection": 4804,
      "oring": 4805,
      "artic": 4806,
      "aries": 4807,
      "arcas": 4808,
      "root": 4809,
      "roTorch": 4810,
      "haz": 4811,
      "hael": 4812,
      "seve": 4813,
      "seam": 4814,
      "seated": 4815,
      "veled": 4816,
      "veloc": 4817,
      "assure": 4818,
      "begins": 4819,
      "ality": 4820,
      "liked": 4821,
      "ables": 4822,
      "wire": 4823,
      "forget": 4824,
      "entry": 4825,
      "unexpected": 4826,
      "unaffected": 4827,
      "chip": 4828,
      "chatt": 4829,
      "moder": 4830,
      "sob": 4831,
      "core": 4832,
      "cook": 4833,
      "cosm": 4834,
      "cooled": 4835,
      "shim": 4836,
      "shined": 4837,
      "cei": 4838,
      "ceter": 4839,
      "doom": 4840,
      "spon": 4841,
      "spider": 4842,
      "suf": 4843,
      "suspect": 4844,
      "suspend": 4845,
      "sail": 4846,
      "saved": 4847,
      "fear": 4848,
      "mph": 4849,
      "conven": 4850,
      "upward": 4851,
      "raw": 4852,
      "cannot": 4853,
      "terms": 4854,
      "dire": 4855,
      "dict": 4856,
      "dimming": 4857,
      "depart": 4858,
      "delay": 4859,
      "deceler": 4860,
      "icle": 4861,
      "elt": 4862,
      "elbow": 4863,
      "worried": 4864,
      "audi": 4865,
      "AstroTorch": 4866,
      "sized": 4867,
      "perk": 4868,
      "perme": 4869,
      "exam": 4870,
      "hoc": 4871,
      "hoped": 4872,
      "Rosco": 4873,
      "plans": 4874,
      "proven": 4875,
      "antenna": 4876,
      "hiss": 4877,
      "otherwise": 4878,
      "ifically": 4879,
      "opaque": 4880,
      "aghetti": 4881,
      "bored": 4882,
      "boss": 4883,
      "foil": 4884,
      "workshop": 4885,
      "attack": 4886,
      "office": 4887,
      "lits": 4888,
      "intro": 4889,
      "intense": 4890,
      "downward": 4891,
      "spected": 4892,
      "waits": 4893,
      "stock": 4894,
      "guard": 4895,
      "amed": 4896,
      "condu": 4897,
      "orted": 4898,
      "throughout": 4899,
      "grace": 4900,
      "sludge": 4901,
      "slapped": 4902,
      "clat": 4903,
      "talks": 4904,
      "talked": 4905,
      "whoosh": 4906,
      "greed": 4907,
      "blind": 4908,
      "chall": 4909,
      "match": 4910,
      "ruin": 4911,
      "triangular": 4912,
      "fired": 4913,
      "monster": 4914,
      "manip": 4915,
      "managed": 4916,
      "guessing": 4917,
      "lesson": 4918,
      "disco": 4919,
      "disappear": 4920,
      "torn": 4921,
      "misery": 4922,
      "fling": 4923,
      "cali": 4924,
      "finishes": 4925,
      "mile": 4926,
      "slee": 4927,
      "page": 4928,
      "tilting": 4929,
      "buried": 4930,
      "spective": 4931,
      "courtes": 4932,
      "cords": 4933,
      "share": 4934,
      "shakes": 4935,
      "partition": 4936,
      "sleeping": 4937,
      "deser": 4938,
      "rises": 4939,
      "risking": 4940,
      "trail": 4941,
      "clicked": 4942,
      "avoid": 4943,
      "tempt": 4944,
      "magn": 4945,
      "puke": 4946,
      "parking": 4947,
      "closes": 4948,
      "rectangle": 4949,
      "generate": 4950,
      "generally": 4951,
      "sixty": 4952,
      "write": 4953,
      "bedroom": 4954,
      "temperatures": 4955,
      "cylindrical": 4956,
      "equivalent": 4957,
      "locations": 4958,
      "moments": 4959,
      "Moe": 4960,
      "Doctor": 4961,
      "blackpanel": 4962,
      "amazed": 4963,
      "thoughts": 4964,
      "shoo": 4965,
      "shock": 4966,
      "shoot": 4967,
      "adding": 4968,
      "Station": 4969,
      "repairs": 4970,
      "Collection": 4971,
      "values": 4972,
      "sistant": 4973,
      "stays": 4974,
      "Cannot": 4975,
      "dropping": 4976,
      "divide": 4977,
      "dividing": 4978,
      "couch": 4979,
      "biotics": 4980,
      "apply": 4981,
      "dramatic": 4982,
      "straw": 4983,
      "circum": 4984,
      "decay": 4985,
      "chairs": 4986,
      "gasped": 4987,
      "ressive": 4988,
      "searched": 4989,
      "technic": 4990,
      "duffe": 4991,
      "osity": 4992,
      "resulting": 4993,
      "Too": 4994,
      "Spencer": 4995,
      "Except": 4996,
      "walking": 4997,
      "logical": 4998,
      "counting": 4999,
      "countdown": 5000,
      "brightness": 5001,
      "gian": 5002,
      "giant": 5003,
      "uniforms": 5004,
      "universe": 5005,
      "swing": 5006,
      "leaks": 5007,
      "sively": 5008,
      "bulbous": 5009,
      "Enough": 5010,
      "commander": 5011,
      "increases": 5012,
      "increasing": 5013,
      "rolls": 5014,
      "cleaned": 5015,
      "pumps": 5016,
      "pumping": 5017,
      "pumped": 5018,
      "freely": 5019,
      "pipet": 5020,
      "positioned": 5021,
      "monitors": 5022,
      "monitoring": 5023,
      "COA": 5024,
      "cooling": 5025,
      "rubbed": 5026,
      "doubling": 5027,
      "doubt": 5028,
      "marks": 5029,
      "marking": 5030,
      "relevant": 5031,
      "studying": 5032,
      "laptops": 5033,
      "emitting": 5034,
      "sentence": 5035,
      "sorts": 5036,
      "gloved": 5037,
      "smos": 5038,
      "electro": 5039,
      "electrical": 5040,
      "bandages": 5041,
      "sensor": 5042,
      "sensation": 5043,
      "sensory": 5044,
      "screws": 5045,
      "Until": 5046,
      "Whoa": 5047,
      "musical": 5048,
      "hexes": 5049,
      "surviving": 5050,
      "survival": 5051,
      "friendly": 5052,
      "fraction": 5053,
      "adjusted": 5054,
      "speaking": 5055,
      "fifth": 5056,
      "portable": 5057,
      "stream": 5058,
      "protect": 5059,
      "Humanity": 5060,
      "crossed": 5061,
      "sweat": 5062,
      "swear": 5063,
      "mistakes": 5064,
      "Device": 5065,
      "levels": 5066,
      "suppose": 5067,
      "greenhouse": 5068,
      "community": 5069,
      "Newtons": 5070,
      "knocked": 5071,
      "mumbled": 5072,
      "snick": 5073,
      "neutrino": 5074,
      "bolted": 5075,
      "folder": 5076,
      "country": 5077,
      "ranged": 5078,
      "ranges": 5079,
      "women": 5080,
      "brown": 5081,
      "fills": 5082,
      "photons": 5083,
      "blinks": 5084,
      "blinking": 5085,
      "charac": 5086,
      "agreement": 5087,
      "chemicals": 5088,
      "billions": 5089,
      "eneath": 5090,
      "nanogram": 5091,
      "laughed": 5092,
      "pyro": 5093,
      "poked": 5094,
      "artifact": 5095,
      "minimal": 5096,
      "squeeze": 5097,
      "blocks": 5098,
      "coward": 5099,
      "hardest": 5100,
      "mechanism": 5101,
      "sexual": 5102,
      "mysterious": 5103,
      "INE": 5104,
      "ING": 5105,
      "Work": 5106,
      "wriggle": 5107,
      "isolation": 5108,
      "isolated": 5109,
      "teeth": 5110,
      "ignored": 5111,
      "classroom": 5112,
      "Angle": 5113,
      "automatically": 5114,
      "Telescope": 5115,
      "pushes": 5116,
      "ception": 5117,
      "plugging": 5118,
      "discs": 5119,
      "details": 5120,
      "Point": 5121,
      "jerk": 5122,
      "concerned": 5123,
      "launches": 5124,
      "electronics": 5125,
      "remotely": 5126,
      "transport": 5127,
      "Need": 5128,
      "Nineteen": 5129,
      "modified": 5130,
      "bulkhead": 5131,
      "sacrific": 5132,
      "Obvious": 5133,
      "Radio": 5134,
      "lurking": 5135,
      "phase": 5136,
      "atograph": 5137,
      "vectors": 5138,
      "scribble": 5139,
      "Canadian": 5140,
      "broadcast": 5141,
      "gulp": 5142,
      "wandering": 5143,
      "sharp": 5144,
      "survivors": 5145,
      "profession": 5146,
      "Aliens": 5147,
      "Correct": 5148,
      "Jettison": 5149,
      "Michael": 5150,
      "blotchy": 5151,
      "portion": 5152,
      "pronoun": 5153,
      "ugly": 5154,
      "record": 5155,
      "method": 5156,
      "lization": 5157,
      "shield": 5158,
      "confirmed": 5159,
      "digestive": 5160,
      "scratch": 5161,
      "Rotate": 5162,
      "procedure": 5163,
      "priority": 5164,
      "electricity": 5165,
      "capsule": 5166,
      "ordinary": 5167,
      "assembly": 5168,
      "vaguely": 5169,
      "Evolution": 5170,
      "hustled": 5171,
      "jungle": 5172,
      "sensible": 5173,
      "adventure": 5174,
      "chromatograph": 5175,
      "demanded": 5176,
      "scenario": 5177,
      "industrial": 5178,
      "opinion": 5179,
      "genetic": 5180,
      "chemistry": 5181,
      "parallel": 5182,
      "substance": 5183,
      "Meanwhile": 5184,
      "civilization": 5185,
      "apocalypse": 5186,
      "damaged": 5187,
      "BOCOA": 5188,
      "Especially": 5189,
      "Marissa": 5190,
      "Navigation": 5191,
      "Several": 5192,
      "Today": 5193,
      "aperture": 5194,
      "daily": 5195,
      "gauge": 5196,
      "knees": 5197,
      "kidding": 5198,
      "mattress": 5199,
      "sandwi": 5200,
      "arcasm": 5201,
      "velocities": 5202,
      "cosmic": 5203,
      "shimmy": 5204,
      "cetera": 5205,
      "suspended": 5206,
      "Roscosmos": 5207,
      "courtesy": 5208,
      "technicians": 5209,
      "28": 5210,
      "37": 5211,
      "51": 5212,
      "55": 5213,
      "66": 5214,
      "72": 5215,
      "Bu": 5216,
      "Black": 5217,
      "Billions": 5218,
      "Cl": 5219,
      "Cu": 5220,
      "Cá": 5221,
      "Cli": 5222,
      "Call": 5223,
      "Cra": 5224,
      "Cop": 5225,
      "Cap": 5226,
      "Cond": 5227,
      "Coffee": 5228,
      "Crew": 5229,
      "Calm": 5230,
      "Dis": 5231,
      "Drop": 5232,
      "Dif": 5233,
      "Dang": 5234,
      "Danger": 5235,
      "EL": 5236,
      "Find": 5237,
      "Fair": 5238,
      "Fine": 5239,
      "Fail": 5240,
      "Fist": 5241,
      "Gu": 5242,
      "Gree": 5243,
      "Gene": 5244,
      "Hmph": 5245,
      "Ig": 5246,
      "Jud": 5247,
      "KP": 5248,
      "Ke": 5249,
      "Kre": 5250,
      "Kill": 5251,
      "Long": 5252,
      "LINE": 5253,
      "MO": 5254,
      "May": 5255,
      "Mart": 5256,
      "Melt": 5257,
      "NO": 5258,
      "Nor": 5259,
      "None": 5260,
      "OR": 5261,
      "Ox": 5262,
      "Oles": 5263,
      "OCI": 5264,
      "Prop": 5265,
      "Pain": 5266,
      "Pick": 5267,
      "Rel": 5268,
      "Rough": 5269,
      "RED": 5270,
      "Sto": 5271,
      "Show": 5272,
      "Sounds": 5273,
      "TER": 5274,
      "US": 5275,
      "Usu": 5276,
      "Vis": 5277,
      "VEL": 5278,
      "War": 5279,
      "ament": 5280,
      "amoeba": 5281,
      "ahold": 5282,
      "avers": 5283,
      "ben": 5284,
      "bast": 5285,
      "bound": 5286,
      "bine": 5287,
      "bought": 5288,
      "bors": 5289,
      "bending": 5290,
      "cti": 5291,
      "cough": 5292,
      "ctory": 5293,
      "dup": 5294,
      "dump": 5295,
      "dinner": 5296,
      "drew": 5297,
      "damn": 5298,
      "eag": 5299,
      "eigh": 5300,
      "fan": 5301,
      "fish": 5302,
      "fades": 5303,
      "fancy": 5304,
      "gant": 5305,
      "gment": 5306,
      "gig": 5307,
      "gift": 5308,
      "hate": 5309,
      "hig": 5310,
      "hift": 5311,
      "ii": 5312,
      "ilo": 5313,
      "ich": 5314,
      "icky": 5315,
      "ivi": 5316,
      "jail": 5317,
      "juni": 5318,
      "kin": 5319,
      "kine": 5320,
      "kink": 5321,
      "lame": 5322,
      "lenses": 5323,
      "mone": 5324,
      "nin": 5325,
      "nation": 5326,
      "nail": 5327,
      "navy": 5328,
      "omy": 5329,
      "ology": 5330,
      "ogs": 5331,
      "olier": 5332,
      "pry": 5333,
      "plot": 5334,
      "pants": 5335,
      "porth": 5336,
      "rust": 5337,
      "race": 5338,
      "rating": 5339,
      "rors": 5340,
      "sli": 5341,
      "slip": 5342,
      "sicle": 5343,
      "tin": 5344,
      "tid": 5345,
      "tone": 5346,
      "tension": 5347,
      "uced": 5348,
      "uries": 5349,
      "vas": 5350,
      "wad": 5351,
      "wra": 5352,
      "wars": 5353,
      "whel": 5354,
      "warn": 5355,
      "wedge": 5356,
      "yest": 5357,
      "…?": 5358,
      "♪♫": 5359,
      "thus": 5360,
      "inse": 5361,
      "inven": 5362,
      "incoming": 5363,
      "instruction": 5364,
      "recent": 5365,
      "reseal": 5366,
      "recording": 5367,
      "reserve": 5368,
      "respective": 5369,
      "ony": 5370,
      "onward": 5371,
      "ats": 5372,
      "atles": 5373,
      "atient": 5374,
      "erday": 5375,
      "erase": 5376,
      "erals": 5377,
      "ermia": 5378,
      "tood": 5379,
      "tomi": 5380,
      "toggle": 5381,
      "stal": 5382,
      "stations": 5383,
      "strip": 5384,
      "static": 5385,
      "hest": 5386,
      "lliant": 5387,
      "memb": 5388,
      "ork": 5389,
      "orrow": 5390,
      "iss": 5391,
      "ised": 5392,
      "isions": 5393,
      "arri": 5394,
      "argu": 5395,
      "arbit": 5396,
      "armed": 5397,
      "rods": 5398,
      "ham": 5399,
      "habit": 5400,
      "season": 5401,
      "sels": 5402,
      "seventeen": 5403,
      "security": 5404,
      "owe": 5405,
      "escap": 5406,
      "ascal": 5407,
      "asses": 5408,
      "acy": 5409,
      "accom": 5410,
      "bel": 5411,
      "alert": 5412,
      "uts": 5413,
      "lim": 5414,
      "tip": 5415,
      "timing": 5416,
      "ticking": 5417,
      "abric": 5418,
      "wired": 5419,
      "wigg": 5420,
      "adul": 5421,
      "unpre": 5422,
      "unless": 5423,
      "uncomfortable": 5424,
      "chuck": 5425,
      "movi": 5426,
      "mobi": 5427,
      "modu": 5428,
      "rig": 5429,
      "rice": 5430,
      "ribut": 5431,
      "noble": 5432,
      "version": 5433,
      "vertical": 5434,
      "social": 5435,
      "coil": 5436,
      "coated": 5437,
      "copi": 5438,
      "negli": 5439,
      "shit": 5440,
      "ceed": 5441,
      "ceres": 5442,
      "wered": 5443,
      "weap": 5444,
      "wegian": 5445,
      "dog": 5446,
      "dozens": 5447,
      "dozen": 5448,
      "span": 5449,
      "spic": 5450,
      "spok": 5451,
      "spaghetti": 5452,
      "spermia": 5453,
      "suspic": 5454,
      "sau": 5455,
      "ferent": 5456,
      "mped": 5457,
      "goop": 5458,
      "conta": 5459,
      "conside": 5460,
      "upset": 5461,
      "male": 5462,
      "rams": 5463,
      "cancel": 5464,
      "termin": 5465,
      "teraby": 5466,
      "diment": 5467,
      "distr": 5468,
      "decre": 5469,
      "rophone": 5470,
      "odes": 5471,
      "odds": 5472,
      "ica": 5473,
      "quad": 5474,
      "quavers": 5475,
      "thermal": 5476,
      "ctro": 5477,
      "acking": 5478,
      "sili": 5479,
      "perfe": 5480,
      "perman": 5481,
      "Astrophages": 5482,
      "umbling": 5483,
      "scour": 5484,
      "astrop": 5485,
      "except": 5486,
      "host": 5487,
      "hose": 5488,
      "hoping": 5489,
      "ateur": 5490,
      "induced": 5491,
      "proxim": 5492,
      "Which": 5493,
      "fuses": 5494,
      "ilence": 5495,
      "illumin": 5496,
      "airflow": 5497,
      "prec": 5498,
      "lighting": 5499,
      "lightbulb": 5500,
      "answered": 5501,
      "amateur": 5502,
      "opti": 5503,
      "aggre": 5504,
      "agons": 5505,
      "agreed": 5506,
      "boys": 5507,
      "bothered": 5508,
      "atts": 5509,
      "twenti": 5510,
      "ula": 5511,
      "ult": 5512,
      "ulus": 5513,
      "ultra": 5514,
      "compat": 5515,
      "compounds": 5516,
      "righted": 5517,
      "intently": 5518,
      "chel": 5519,
      "baili": 5520,
      "overall": 5521,
      "overwhel": 5522,
      "typing": 5523,
      "angry": 5524,
      "locked": 5525,
      "erstood": 5526,
      "central": 5527,
      "driver": 5528,
      "stor": 5529,
      "stocked": 5530,
      "Shemp": 5531,
      "guide": 5532,
      "acting": 5533,
      "vior": 5534,
      "viol": 5535,
      "crepan": 5536,
      "created": 5537,
      "creates": 5538,
      "mbling": 5539,
      "grand": 5540,
      "grade": 5541,
      "grunt": 5542,
      "headset": 5543,
      "clen": 5544,
      "cling": 5545,
      "clink": 5546,
      "cloud": 5547,
      "fted": 5548,
      "minerals": 5549,
      "planning": 5550,
      "talented": 5551,
      "talkie": 5552,
      "fewer": 5553,
      "whoa": 5554,
      "grew": 5555,
      "cloth": 5556,
      "clothing": 5557,
      "blame": 5558,
      "panspermia": 5559,
      "matched": 5560,
      "stub": 5561,
      "studied": 5562,
      "tunnels": 5563,
      "rudiment": 5564,
      "tricky": 5565,
      "Intell": 5566,
      "fice": 5567,
      "finds": 5568,
      "finding": 5569,
      "monument": 5570,
      "rester": 5571,
      "rested": 5572,
      "telling": 5573,
      "sampling": 5574,
      "letters": 5575,
      "glanced": 5576,
      "underneath": 5577,
      "lessness": 5578,
      "disrup": 5579,
      "missing": 5580,
      "flail": 5581,
      "mild": 5582,
      "positive": 5583,
      "served": 5584,
      "brary": 5585,
      "experts": 5586,
      "starve": 5587,
      "bubble": 5588,
      "bucket": 5589,
      "specifically": 5590,
      "court": 5591,
      "microphone": 5592,
      "checks": 5593,
      "oxides": 5594,
      "topic": 5595,
      "gger": 5596,
      "despite": 5597,
      "rise": 5598,
      "trained": 5599,
      "ectual": 5600,
      "pleasure": 5601,
      "waited": 5602,
      "imperial": 5603,
      "impossible": 5604,
      "impressive": 5605,
      "magic": 5606,
      "magical": 5607,
      "nothingness": 5608,
      "Ohhh": 5609,
      "Beatles": 5610,
      "millig": 5611,
      "closely": 5612,
      "generations": 5613,
      "mercial": 5614,
      "interrup": 5615,
      "interplanetary": 5616,
      "biggest": 5617,
      "latter": 5618,
      "umbles": 5619,
      "bedding": 5620,
      "Attempt": 5621,
      "rotating": 5622,
      "containment": 5623,
      "phy": 5624,
      "cellular": 5625,
      "momentum": 5626,
      "Move": 5627,
      "bones": 5628,
      "collar": 5629,
      "collision": 5630,
      "extension": 5631,
      "vocal": 5632,
      "makeshift": 5633,
      "squir": 5634,
      "medic": 5635,
      "microbiolog": 5636,
      "crash": 5637,
      "crane": 5638,
      "Isn": 5639,
      "Start": 5640,
      "replic": 5641,
      "Cool": 5642,
      "seats": 5643,
      "thicker": 5644,
      "climbs": 5645,
      "Forrester": 5646,
      "applic": 5647,
      "lander": 5648,
      "wore": 5649,
      "breaker": 5650,
      "signed": 5651,
      "cases": 5652,
      "survives": 5653,
      "pressing": 5654,
      "eighty": 5655,
      "izing": 5656,
      "distribut": 5657,
      "funny": 5658,
      "osition": 5659,
      "toolkit": 5660,
      "Total": 5661,
      "satchel": 5662,
      "Expe": 5663,
      "Excellent": 5664,
      "primates": 5665,
      "walkie": 5666,
      "patience": 5667,
      "logic": 5668,
      "personally": 5669,
      "brains": 5670,
      "expand": 5671,
      "Seal": 5672,
      "remained": 5673,
      "copies": 5674,
      "excite": 5675,
      "hanging": 5676,
      "teaching": 5677,
      "teachers": 5678,
      "transmit": 5679,
      "translation": 5680,
      "comfort": 5681,
      "comforting": 5682,
      "caused": 5683,
      "mounting": 5684,
      "generators": 5685,
      "ellip": 5686,
      "hyper": 5687,
      "paint": 5688,
      "painful": 5689,
      "struck": 5690,
      "struggle": 5691,
      "changing": 5692,
      "shortly": 5693,
      "utral": 5694,
      "ription": 5695,
      "carried": 5696,
      "Mekn": 5697,
      "cutting": 5698,
      "propel": 5699,
      "rane": 5700,
      "ranch": 5701,
      "feeds": 5702,
      "emitter": 5703,
      "tomorrow": 5704,
      "calculated": 5705,
      "smoke": 5706,
      "thrown": 5707,
      "motions": 5708,
      "bandaged": 5709,
      "bandolier": 5710,
      "screwdriver": 5711,
      "rotational": 5712,
      "America": 5713,
      "muscle": 5714,
      "detection": 5715,
      "detector": 5716,
      "waveform": 5717,
      "drifts": 5718,
      "college": 5719,
      "designs": 5720,
      "beside": 5721,
      "frust": 5722,
      "grows": 5723,
      "♫♪♩": 5724,
      "products": 5725,
      "faced": 5726,
      "facility": 5727,
      "flipped": 5728,
      "separation": 5729,
      "separates": 5730,
      "fists": 5731,
      "horri": 5732,
      "functions": 5733,
      "marker": 5734,
      "markers": 5735,
      "sweet": 5736,
      "instinct": 5737,
      "reflect": 5738,
      "statement": 5739,
      "lifting": 5740,
      "advances": 5741,
      "Americans": 5742,
      "Definitely": 5743,
      "powder": 5744,
      "relativity": 5745,
      "melted": 5746,
      "brilliant": 5747,
      "anese": 5748,
      "folds": 5749,
      "Army": 5750,
      "aaa": 5751,
      "catches": 5752,
      "operation": 5753,
      "progression": 5754,
      "spectrograph": 5755,
      "ATP": 5756,
      "balance": 5757,
      "balanced": 5758,
      "photon": 5759,
      "learning": 5760,
      "digits": 5761,
      "ridiculously": 5762,
      "famine": 5763,
      "navigate": 5764,
      "sinks": 5765,
      "sinking": 5766,
      "confirmation": 5767,
      "Speaking": 5768,
      "gunky": 5769,
      "jected": 5770,
      "accurately": 5771,
      "molecular": 5772,
      "absorbing": 5773,
      "Pete": 5774,
      "converted": 5775,
      "squeaks": 5776,
      "Didn": 5777,
      "blocking": 5778,
      "malfunction": 5779,
      "include": 5780,
      "annoyed": 5781,
      "message": 5782,
      "conditioning": 5783,
      "millimeters": 5784,
      "evolutionary": 5785,
      "listening": 5786,
      "listened": 5787,
      "cruising": 5788,
      "wrist": 5789,
      "orientation": 5790,
      "solder": 5791,
      "implement": 5792,
      "sixteenth": 5793,
      "Sixty": 5794,
      "pinched": 5795,
      "consumed": 5796,
      "deliver": 5797,
      "truth": 5798,
      "pressurized": 5799,
      "discus": 5800,
      "jettisoned": 5801,
      "ritual": 5802,
      "independ": 5803,
      "instrument": 5804,
      "interested": 5805,
      "thesis": 5806,
      "selection": 5807,
      "beeping": 5808,
      "chords": 5809,
      "featureless": 5810,
      "concern": 5811,
      "developed": 5812,
      "booze": 5813,
      "reduced": 5814,
      "officer": 5815,
      "officers": 5816,
      "approaching": 5817,
      "Planets": 5818,
      "scheduled": 5819,
      "Neutrin": 5820,
      "Sub": 5821,
      "migrate": 5822,
      "quantities": 5823,
      "tastes": 5824,
      "potential": 5825,
      "potato": 5826,
      "posture": 5827,
      "occasional": 5828,
      "counterweight": 5829,
      "sacrifice": 5830,
      "Radiation": 5831,
      "dedic": 5832,
      "awkwardly": 5833,
      "Canadians": 5834,
      "Engine": 5835,
      "Engines": 5836,
      "approximately": 5837,
      "briefly": 5838,
      "briefcase": 5839,
      "naming": 5840,
      "ratio": 5841,
      "sneak": 5842,
      "turbine": 5843,
      "secure": 5844,
      "concentrate": 5845,
      "chewing": 5846,
      "slumps": 5847,
      "sterilize": 5848,
      "structure": 5849,
      "CONTRO": 5850,
      "variance": 5851,
      "suggested": 5852,
      "volunteered": 5853,
      "favorite": 5854,
      "Minister": 5855,
      "route": 5856,
      "molds": 5857,
      "neighbors": 5858,
      "celebrate": 5859,
      "suffer": 5860,
      "deeper": 5861,
      "expression": 5862,
      "optional": 5863,
      "sliders": 5864,
      "climatologists": 5865,
      "microscopic": 5866,
      "destroying": 5867,
      "European": 5868,
      "Below": 5869,
      "Popsicle": 5870,
      "ecology": 5871,
      "frowned": 5872,
      "ikov": 5873,
      "nickel": 5874,
      "pouch": 5875,
      "parents": 5876,
      "tough": 5877,
      "enriched": 5878,
      "heavi": 5879,
      "secret": 5880,
      "document": 5881,
      "dialogs": 5882,
      "simulate": 5883,
      "schematic": 5884,
      "guarantee": 5885,
      "blanket": 5886,
      "disgusting": 5887,
      "Standard": 5888,
      "embezzled": 5889,
      "Scientific": 5890,
      "Curly": 5891,
      "Eventually": 5892,
      "Japanese": 5893,
      "Predator": 5894,
      "darned": 5895,
      "faint": 5896,
      "fiddled": 5897,
      "gentle": 5898,
      "wispy": 5899,
      "insertion": 5900,
      "reveal": 5901,
      "hazmat": 5902,
      "severely": 5903,
      "chatting": 5904,
      "sponge": 5905,
      "suffoc": 5906,
      "clatters": 5907,
      "magnific": 5908,
      "markings": 5909,
      "pyros": 5910,
      "Obviously": 5911,
      "professional": 5912,
      "sandwich": 5913,
      "Cáceres": 5914,
      "Copy": 5915,
      "Condition": 5916,
      "Different": 5917,
      "Judging": 5918,
      "KPS": 5919,
      "Keep": 5920,
      "Krebs": 5921,
      "Martin": 5922,
      "Norwegian": 5923,
      "Olesya": 5924,
      "OCITY": 5925,
      "Usually": 5926,
      "VELOCITY": 5927,
      "duplic": 5928,
      "eighth": 5929,
      "highest": 5930,
      "ivistic": 5931,
      "junior": 5932,
      "kinetic": 5933,
      "money": 5934,
      "porthole": 5935,
      "yesterday": 5936,
      "arbitr": 5937,
      "accommo": 5938,
      "spoken": 5939,
      "considered": 5940,
      "bailiff": 5941,
      "crepancy": 5942,
      "rudimentary": 5943,
      "Meknikov": 5944,
      "CONTROL": 5945,
      ",’": 5946,
      "01": 5947,
      "06": 5948,
      "08": 5949,
      "071": 5950,
      "21": 5951,
      "39": 5952,
      "325": 5953,
      "42": 5954,
      "540": 5955,
      "70": 5956,
      "75": 5957,
      "84": 5958,
      "872": 5959,
      "91": 5960,
      "92": 5961,
      "93": 5962,
      "AC": 5963,
      "AR": 5964,
      "Ad": 5965,
      "Apo": 5966,
      "Abo": 5967,
      "Aren": 5968,
      "AIN": 5969,
      "Agreed": 5970,
      "BB": 5971,
      "Bre": 5972,
      "Bring": 5973,
      "Barely": 5974,
      "Brit": 5975,
      "Beneath": 5976,
      "CR": 5977,
      "CU": 5978,
      "Che": 5979,
      "Cal": 5980,
      "Cant": 5981,
      "Cable": 5982,
      "Col": 5983,
      "Camer": 5984,
      "Clever": 5985,
      "Day": 5986,
      "Dut": 5987,
      "Dest": 5988,
      "Dist": 5989,
      "Dise": 5990,
      "Die": 5991,
      "Dummy": 5992,
      "Ext": 5993,
      "FF": 5994,
      "Fi": 5995,
      "Far": 5996,
      "Fast": 5997,
      "Found": 5998,
      "Fif": 5999,
      "Faring": 6000,
      "Failed": 6001,
      "French": 6002,
      "Great": 6003,
      "GCR": 6004,
      "Hm": 6005,
      "Hand": 6006,
      "ID": 6007,
      "Iλ": 6008,
      "Ind": 6009,
      "JE": 6010,
      "Jup": 6011,
      "KG": 6012,
      "KS": 6013,
      "LI": 6014,
      "Lind": 6015,
      "Later": 6016,
      "Mon": 6017,
      "Mor": 6018,
      "Main": 6019,
      "Mass": 6020,
      "MAN": 6021,
      "MAIN": 6022,
      "MKS": 6023,
      "N2": 6024,
      "Non": 6025,
      "Neither": 6026,
      "NSA": 6027,
      "O2": 6028,
      "Op": 6029,
      "Ow": 6030,
      "Ori": 6031,
      "Par": 6032,
      "Presu": 6033,
      "Possible": 6034,
      "PTION": 6035,
      "Qu": 6036,
      "RA": 6037,
      "Random": 6038,
      "RAT": 6039,
      "ST": 6040,
      "Sa": 6041,
      "Si": 6042,
      "Sat": 6043,
      "Sing": 6044,
      "Sort": 6045,
      "Sask": 6046,
      "Sarcasm": 6047,
      "Silence": 6048,
      "Try": 6049,
      "UAL": 6050,
      "VV": 6051,
      "York": 6052,
      "af": 6053,
      "az": 6054,
      "awe": 6055,
      "aled": 6056,
      "aith": 6057,
      "bent": 6058,
      "bare": 6059,
      "brid": 6060,
      "bred": 6061,
      "bang": 6062,
      "batch": 6063,
      "border": 6064,
      "bility": 6065,
      "bunks": 6066,
      "cc": 6067,
      "cri": 6068,
      "city": 6069,
      "cred": 6070,
      "cated": 6071,
      "ctop": 6072,
      "cris": 6073,
      "cient": 6074,
      "dit": 6075,
      "dad": 6076,
      "dent": 6077,
      "dang": 6078,
      "dance": 6079,
      "daw": 6080,
      "dorm": 6081,
      "dressed": 6082,
      "eh": 6083,
      "eth": 6084,
      "ese": 6085,
      "ech": 6086,
      "earth": 6087,
      "eject": 6088,
      "etern": 6089,
      "fed": 6090,
      "fut": 6091,
      "fau": 6092,
      "fits": 6093,
      "fused": 6094,
      "fabric": 6095,
      "faith": 6096,
      "gle": 6097,
      "gad": 6098,
      "gion": 6099,
      "gus": 6100,
      "grid": 6101,
      "gidd": 6102,
      "hat": 6103,
      "hic": 6104,
      "hil": 6105,
      "hunk": 6106,
      "iles": 6107,
      "iest": 6108,
      "jac": 6109,
      "jag": 6110,
      "jig": 6111,
      "jaw": 6112,
      "judge": 6113,
      "kly": 6114,
      "knot": 6115,
      "kits": 6116,
      "lone": 6117,
      "lters": 6118,
      "lator": 6119,
      "lately": 6120,
      "lumin": 6121,
      "lord": 6122,
      "mc": 6123,
      "mare": 6124,
      "mim": 6125,
      "mately": 6126,
      "mention": 6127,
      "ni": 6128,
      "nn": 6129,
      "nar": 6130,
      "num": 6131,
      "nak": 6132,
      "nically": 6133,
      "nutr": 6134,
      "nudge": 6135,
      "native": 6136,
      "oo": 6137,
      "ogen": 6138,
      "olet": 6139,
      "omed": 6140,
      "odic": 6141,
      "pun": 6142,
      "pig": 6143,
      "punch": 6144,
      "pave": 6145,
      "pical": 6146,
      "paced": 6147,
      "rr": 6148,
      "ride": 6149,
      "rates": 6150,
      "sday": 6151,
      "swipe": 6152,
      "slits": 6153,
      "tar": 6154,
      "tad": 6155,
      "tally": 6156,
      "tles": 6157,
      "tong": 6158,
      "tink": 6159,
      "tens": 6160,
      "tends": 6161,
      "tasks": 6162,
      "tables": 6163,
      "uay": 6164,
      "ush": 6165,
      "uma": 6166,
      "vy": 6167,
      "vat": 6168,
      "vot": 6169,
      "wn": 6170,
      "wha": 6171,
      "wadded": 6172,
      "wander": 6173,
      "wreck": 6174,
      "xel": 6175,
      "xury": 6176,
      "zzy": 6177,
      "°.": 6178,
      "—?”": 6179,
      "“+": 6180,
      "“♫♩": 6181,
      "“♫♩♪": 6182,
      "…“": 6183,
      "♪.”": 6184,
      "♫,”": 6185,
      "thal": 6186,
      "inte": 6187,
      "infl": 6188,
      "inspect": 6189,
      "infinite": 6190,
      "inery": 6191,
      "infra": 6192,
      "inert": 6193,
      "initi": 6194,
      "theter": 6195,
      "thetic": 6196,
      "theories": 6197,
      "aned": 6198,
      "anny": 6199,
      "ancient": 6200,
      "rese": 6201,
      "remind": 6202,
      "retract": 6203,
      "reminds": 6204,
      "recovering": 6205,
      "repressurize": 6206,
      "recei": 6207,
      "refuses": 6208,
      "refused": 6209,
      "onent": 6210,
      "atchew": 6211,
      "toys": 6212,
      "ened": 6213,
      "ency": 6214,
      "enforced": 6215,
      "sting": 6216,
      "stro": 6217,
      "stur": 6218,
      "stam": 6219,
      "stics": 6220,
      "stress": 6221,
      "sticky": 6222,
      "ited": 6223,
      "ittle": 6224,
      "itches": 6225,
      "heated": 6226,
      "helip": 6227,
      "hectop": 6228,
      "llable": 6229,
      "lete": 6230,
      "lethal": 6231,
      "meas": 6232,
      "meta": 6233,
      "meals": 6234,
      "orange": 6235,
      "orph": 6236,
      "ises": 6237,
      "istor": 6238,
      "ission": 6239,
      "armat": 6240,
      "arith": 6241,
      "aratus": 6242,
      "arily": 6243,
      "arranged": 6244,
      "ands": 6245,
      "roy": 6246,
      "roof": 6247,
      "halt": 6248,
      "segment": 6249,
      "idly": 6250,
      "idance": 6251,
      "espe": 6252,
      "esses": 6253,
      "asp": 6254,
      "ashes": 6255,
      "assign": 6256,
      "ache": 6257,
      "acqu": 6258,
      "acade": 6259,
      "actic": 6260,
      "acies": 6261,
      "accompl": 6262,
      "bell": 6263,
      "alig": 6264,
      "altern": 6265,
      "alysis": 6266,
      "align": 6267,
      "geodes": 6268,
      "lied": 6269,
      "liment": 6270,
      "library": 6271,
      "tied": 6272,
      "tick": 6273,
      "tiary": 6274,
      "tiff": 6275,
      "Theory": 6276,
      "allic": 6277,
      "logo": 6278,
      "lying": 6279,
      "abs": 6280,
      "aband": 6281,
      "aback": 6282,
      "abuse": 6283,
      "abase": 6284,
      "absent": 6285,
      "abdomin": 6286,
      "abilities": 6287,
      "ador": 6288,
      "admi": 6289,
      "admini": 6290,
      "forte": 6291,
      "forgot": 6292,
      "forties": 6293,
      "unic": 6294,
      "unable": 6295,
      "unman": 6296,
      "unusual": 6297,
      "unclip": 6298,
      "unusually": 6299,
      "chill": 6300,
      "chime": 6301,
      "chnically": 6302,
      "mock": 6303,
      "mood": 6304,
      "mother": 6305,
      "kets": 6306,
      "ribe": 6307,
      "riculture": 6308,
      "nostics": 6309,
      "noises": 6310,
      "whir": 6311,
      "sore": 6312,
      "soles": 6313,
      "solit": 6314,
      "coal": 6315,
      "code": 6316,
      "coils": 6317,
      "irrit": 6318,
      "neat": 6319,
      "neous": 6320,
      "nebul": 6321,
      "neutral": 6322,
      "shy": 6323,
      "shower": 6324,
      "shuff": 6325,
      "shining": 6326,
      "cement": 6327,
      "weld": 6328,
      "wears": 6329,
      "Its": 6330,
      "dom": 6331,
      "domain": 6332,
      "doses": 6333,
      "spir": 6334,
      "splot": 6335,
      "spacing": 6336,
      "aresistant": 6337,
      "sus": 6338,
      "sucks": 6339,
      "suspected": 6340,
      "young": 6341,
      "sails": 6342,
      "fellow": 6343,
      "goat": 6344,
      "goal": 6345,
      "gold": 6346,
      "gobble": 6347,
      "Thrust": 6348,
      "concep": 6349,
      "construction": 6350,
      "confuse": 6351,
      "upright": 6352,
      "rain": 6353,
      "cane": 6354,
      "cancer": 6355,
      "teria": 6356,
      "tertiary": 6357,
      "diet": 6358,
      "diffic": 6359,
      "dialog": 6360,
      "digging": 6361,
      "dep": 6362,
      "dear": 6363,
      "defin": 6364,
      "wash": 6365,
      "odor": 6366,
      "ices": 6367,
      "oked": 6368,
      "peat": 6369,
      "peace": 6370,
      "peered": 6371,
      "ideal": 6372,
      "thermo": 6373,
      "notably": 6374,
      "tale": 6375,
      "taut": 6376,
      "tapping": 6377,
      "sile": 6378,
      "sizes": 6379,
      "periment": 6380,
      "perked": 6381,
      "perceive": 6382,
      "umm": 6383,
      "scroll": 6384,
      "scram": 6385,
      "scrap": 6386,
      "ours": 6387,
      "poles": 6388,
      "poses": 6389,
      "someday": 6390,
      "sometimes": 6391,
      "exerc": 6392,
      "exists": 6393,
      "hob": 6394,
      "hover": 6395,
      "hollow": 6396,
      "hospit": 6397,
      "plates": 6398,
      "inder": 6399,
      "tray": 6400,
      "trus": 6401,
      "trudge": 6402,
      "backpack": 6403,
      "Weird": 6404,
      "Western": 6405,
      "illaries": 6406,
      "inea": 6407,
      "prepar": 6408,
      "prefer": 6409,
      "prediction": 6410,
      "Nobel": 6411,
      "among": 6412,
      "iff": 6413,
      "ifican": 6414,
      "seek": 6415,
      "opposed": 6416,
      "opport": 6417,
      "ardless": 6418,
      "agger": 6419,
      "agape": 6420,
      "aguay": 6421,
      "agency": 6422,
      "agriculture": 6423,
      "boon": 6424,
      "boil": 6425,
      "boot": 6426,
      "boiling": 6427,
      "bolts": 6428,
      "boils": 6429,
      "foam": 6430,
      "handheld": 6431,
      "attenti": 6432,
      "hassl": 6433,
      "ventil": 6434,
      "offer": 6435,
      "compound": 6436,
      "complet": 6437,
      "compliment": 6438,
      "steer": 6439,
      "intu": 6440,
      "inten": 6441,
      "intact": 6442,
      "bypass": 6443,
      "chemo": 6444,
      "bases": 6445,
      "downed": 6446,
      "downstairs": 6447,
      "overdose": 6448,
      "typical": 6449,
      "tled": 6450,
      "contrap": 6451,
      "spection": 6452,
      "speech": 6453,
      "locks": 6454,
      "locker": 6455,
      "ersed": 6456,
      "Strange": 6457,
      "centrifu": 6458,
      "waii": 6459,
      "guidance": 6460,
      "guinea": 6461,
      "surely": 6462,
      "actu": 6463,
      "smiles": 6464,
      "viable": 6465,
      "violet": 6466,
      "creature": 6467,
      "ortly": 6468,
      "icking": 6469,
      "mbles": 6470,
      "mbers": 6471,
      "grin": 6472,
      "grity": 6473,
      "grumble": 6474,
      "headrest": 6475,
      "slap": 6476,
      "clue": 6477,
      "clud": 6478,
      "claim": 6479,
      "vessels": 6480,
      "syn": 6481,
      "syllable": 6482,
      "secondary": 6483,
      "minal": 6484,
      "minister": 6485,
      "wherever": 6486,
      "engaged": 6487,
      "fueling": 6488,
      "tuned": 6489,
      "yourself": 6490,
      "blished": 6491,
      "pantomi": 6492,
      "tooth": 6493,
      "chase": 6494,
      "matches": 6495,
      "matically": 6496,
      "commit": 6497,
      "commercial": 6498,
      "comaresistant": 6499,
      "faring": 6500,
      "trivial": 6501,
      "trigger": 6502,
      "foreign": 6503,
      "solves": 6504,
      "solving": 6505,
      "Intern": 6506,
      "file": 6507,
      "setup": 6508,
      "presses": 6509,
      "standard": 6510,
      "guesswork": 6511,
      "gling": 6512,
      "ensing": 6513,
      "discrepancy": 6514,
      "finished": 6515,
      "mix": 6516,
      "crewmate": 6517,
      "crewmember": 6518,
      "serves": 6519,
      "series": 6520,
      "servo": 6521,
      "service": 6522,
      "brand": 6523,
      "brut": 6524,
      "forming": 6525,
      "formula": 6526,
      "pivot": 6527,
      "pixel": 6528,
      "pale": 6529,
      "paid": 6530,
      "starving": 6531,
      "starboard": 6532,
      "Anti": 6533,
      "Gosh": 6534,
      "tense": 6535,
      "armor": 6536,
      "armrest": 6537,
      "oxid": 6538,
      "Justice": 6539,
      "vels": 6540,
      "sleeps": 6541,
      "Somehow": 6542,
      "Someday": 6543,
      "desks": 6544,
      "rison": 6545,
      "risks": 6546,
      "trait": 6547,
      "traje": 6548,
      "trauma": 6549,
      "understood": 6550,
      "waitress": 6551,
      "improv": 6552,
      "tones": 6553,
      "tonight": 6554,
      "strator": 6555,
      "strings": 6556,
      "published": 6557,
      "parked": 6558,
      "rences": 6559,
      "Behind": 6560,
      "Belie": 6561,
      "Beyond": 6562,
      "awful": 6563,
      "milling": 6564,
      "rectangles": 6565,
      "Petrovafrequency": 6566,
      "badly": 6567,
      "mercury": 6568,
      "interlock": 6569,
      "intercom": 6570,
      "interface": 6571,
      "interaction": 6572,
      "percentage": 6573,
      "percentages": 6574,
      "equals": 6575,
      "Liber": 6576,
      "ountain": 6577,
      "ishment": 6578,
      "rotated": 6579,
      "culate": 6580,
      "phic": 6581,
      "powering": 6582,
      "dders": 6583,
      "hardly": 6584,
      "Moscow": 6585,
      "cramped": 6586,
      "Everywhere": 6587,
      "bonds": 6588,
      "homeworld": 6589,
      "amaze": 6590,
      "extends": 6591,
      "slows": 6592,
      "slowing": 6593,
      "elegant": 6594,
      "shoves": 6595,
      "shocked": 6596,
      "zeroed": 6597,
      "microseconds": 6598,
      "microwave": 6599,
      "microwaves": 6600,
      "crus": 6601,
      "craned": 6602,
      "adds": 6603,
      "experimentation": 6604,
      "Anyone": 6605,
      "Star": 6606,
      "Stars": 6607,
      "Stupid": 6608,
      "Stuff": 6609,
      "Cosmo": 6610,
      "licensing": 6611,
      "hopefully": 6612,
      "senses": 6613,
      "nerves": 6614,
      "ilding": 6615,
      "connection": 6616,
      "connects": 6617,
      "Force": 6618,
      "database": 6619,
      "returned": 6620,
      "clockwise": 6621,
      "biome": 6622,
      "biomes": 6623,
      "apparatus": 6624,
      "cern": 6625,
      "dragged": 6626,
      "dramatically": 6627,
      "strapped": 6628,
      "accep": 6629,
      "breaking": 6630,
      "sterile": 6631,
      "hips": 6632,
      "izes": 6633,
      "ization": 6634,
      "resin": 6635,
      "measured": 6636,
      "distur": 6637,
      "distress": 6638,
      "oscope": 6639,
      "spotted": 6640,
      "easiest": 6641,
      "Together": 6642,
      "burning": 6643,
      "satis": 6644,
      "visual": 6645,
      "finely": 6646,
      "accelerates": 6647,
      "Exact": 6648,
      "Explain": 6649,
      "Explo": 6650,
      "Experiment": 6651,
      "lateral": 6652,
      "searching": 6653,
      "aimed": 6654,
      "picks": 6655,
      "Remember": 6656,
      "Repeat": 6657,
      "countless": 6658,
      "nicely": 6659,
      "fingernail": 6660,
      "helps": 6661,
      "Surely": 6662,
      "brightest": 6663,
      "hitch": 6664,
      "older": 6665,
      "swings": 6666,
      "switches": 6667,
      "significan": 6668,
      "Sea": 6669,
      "Second": 6670,
      "bunker": 6671,
      "lucent": 6672,
      "luxury": 6673,
      "skip": 6674,
      "transistor": 6675,
      "translucent": 6676,
      "technological": 6677,
      "catheter": 6678,
      "laying": 6679,
      "linked": 6680,
      "mouthful": 6681,
      "passing": 6682,
      "deeply": 6683,
      "buildings": 6684,
      "Absolutely": 6685,
      "elles": 6686,
      "freeze": 6687,
      "hydr": 6688,
      "stupidly": 6689,
      "colum": 6690,
      "textured": 6691,
      "follows": 6692,
      "languages": 6693,
      "appeared": 6694,
      "Meal": 6695,
      "Methane": 6696,
      "cuts": 6697,
      "marine": 6698,
      "margin": 6699,
      "feeding": 6700,
      "feedback": 6701,
      "traveler": 6702,
      "spaceships": 6703,
      "randomly": 6704,
      "sending": 6705,
      "organelles": 6706,
      "calculations": 6707,
      "risky": 6708,
      "cabling": 6709,
      "throwing": 6710,
      "deaths": 6711,
      "jumpsuits": 6712,
      "sensors": 6713,
      "memories": 6714,
      "liquids": 6715,
      "diagrams": 6716,
      "diagnostics": 6717,
      "assumes": 6718,
      "Looking": 6719,
      "Unless": 6720,
      "muscular": 6721,
      "150": 6722,
      "frankly": 6723,
      "nightmare": 6724,
      "♫♪.”": 6725,
      "atomic": 6726,
      "metallic": 6727,
      "adjusts": 6728,
      "burst": 6729,
      "facilities": 6730,
      "gained": 6731,
      "offered": 6732,
      "fixed": 6733,
      "capability": 6734,
      "capillaries": 6735,
      "fails": 6736,
      "gather": 6737,
      "machinery": 6738,
      "silver": 6739,
      "sickness": 6740,
      "protecting": 6741,
      "joy": 6742,
      "purse": 6743,
      "sipping": 6744,
      "researchers": 6745,
      "reflection": 6746,
      "reflecting": 6747,
      "messing": 6748,
      "shrug": 6749,
      "amazingly": 6750,
      "Complete": 6751,
      "proud": 6752,
      "relativistic": 6753,
      "brick": 6754,
      "ciation": 6755,
      "cially": 6756,
      "snap": 6757,
      "snorted": 6758,
      "absorbed": 6759,
      "consciousness": 6760,
      "folding": 6761,
      "situations": 6762,
      "affects": 6763,
      "catastrop": 6764,
      "menu": 6765,
      "operations": 6766,
      "scales": 6767,
      "glows": 6768,
      "glowing": 6769,
      "Seeing": 6770,
      "candy": 6771,
      "images": 6772,
      "kicked": 6773,
      "healing": 6774,
      "considerate": 6775,
      "considerably": 6776,
      "quality": 6777,
      "gestures": 6778,
      "REMAIN": 6779,
      "famous": 6780,
      "trees": 6781,
      "helium": 6782,
      "whiskey": 6783,
      "symmetri": 6784,
      "requires": 6785,
      "softly": 6786,
      "multiply": 6787,
      "installing": 6788,
      "Spec": 6789,
      "Special": 6790,
      "Spectro": 6791,
      "furrow": 6792,
      "jeep": 6793,
      "widen": 6794,
      "enemy": 6795,
      "majority": 6796,
      "smacks": 6797,
      "clamps": 6798,
      "clamped": 6799,
      "cubby": 6800,
      "patterns": 6801,
      "absorbs": 6802,
      "nanometers": 6803,
      "125": 6804,
      "Amazing": 6805,
      "IVME": 6806,
      "morality": 6807,
      "morphic": 6808,
      "pokes": 6809,
      "rupt": 6810,
      "successful": 6811,
      "successfully": 6812,
      "governments": 6813,
      "conversion": 6814,
      "minimize": 6815,
      "collecting": 6816,
      "textures": 6817,
      "flicking": 6818,
      "Between": 6819,
      "freak": 6820,
      "gonna": 6821,
      "nylon": 6822,
      "scanner": 6823,
      "sequen": 6824,
      "actively": 6825,
      "quietly": 6826,
      "providing": 6827,
      "estimates": 6828,
      "relatively": 6829,
      "sacs": 6830,
      "revolution": 6831,
      "isolate": 6832,
      "confidence": 6833,
      "confusion": 6834,
      "settled": 6835,
      "Hopeless": 6836,
      "candidate": 6837,
      "Technically": 6838,
      "latest": 6839,
      "nonsense": 6840,
      "cepti": 6841,
      "consume": 6842,
      "cracks": 6843,
      "failures": 6844,
      "Communic": 6845,
      "molecule": 6846,
      "Pole": 6847,
      "Shortly": 6848,
      "fairly": 6849,
      "grips": 6850,
      "napkin": 6851,
      "index": 6852,
      "antibiotics": 6853,
      "select": 6854,
      "beeps": 6855,
      "features": 6856,
      "boots": 6857,
      "reduce": 6858,
      "flush": 6859,
      "Despite": 6860,
      "Sudden": 6861,
      "Success": 6862,
      "migration": 6863,
      "pills": 6864,
      "scopy": 6865,
      "insulation": 6866,
      "stripe": 6867,
      "modify": 6868,
      "delicious": 6869,
      "quantum": 6870,
      "quantity": 6871,
      "description": 6872,
      "describe": 6873,
      "occasionally": 6874,
      "batteries": 6875,
      "complaint": 6876,
      "Super": 6877,
      "lurches": 6878,
      "beanbags": 6879,
      "existed": 6880,
      "redundant": 6881,
      "repairing": 6882,
      "spacesuits": 6883,
      "approximate": 6884,
      "wheels": 6885,
      "photograph": 6886,
      "inertial": 6887,
      "CIA": 6888,
      "Prize": 6889,
      "crying": 6890,
      "frozen": 6891,
      "fighting": 6892,
      "gulped": 6893,
      "namics": 6894,
      "nouns": 6895,
      "vitam": 6896,
      "wobble": 6897,
      "seeds": 6898,
      "seeded": 6899,
      "combination": 6900,
      "sharply": 6901,
      "partial": 6902,
      "particle": 6903,
      "structural": 6904,
      "survivor": 6905,
      "analyze": 6906,
      "analyzer": 6907,
      "requirements": 6908,
      "maneuvering": 6909,
      "Hawaii": 6910,
      "Sample": 6911,
      "Sampler": 6912,
      "gamma": 6913,
      "gambling": 6914,
      "routine": 6915,
      "threatening": 6916,
      "arrayed": 6917,
      "celebration": 6918,
      "pockets": 6919,
      "prepared": 6920,
      "amnes": 6921,
      "ultimate": 6922,
      "climatologist": 6923,
      "microscopes": 6924,
      "copyrighted": 6925,
      "drummed": 6926,
      "fidgeted": 6927,
      "Small": 6928,
      "Smart": 6929,
      "custom": 6930,
      "drome": 6931,
      "drove": 6932,
      "echoing": 6933,
      "emotional": 6934,
      "harmless": 6935,
      "promised": 6936,
      "injury": 6937,
      "enjoy": 6938,
      "enjoying": 6939,
      "utterly": 6940,
      "alloy": 6941,
      "alloys": 6942,
      "motors": 6943,
      "motorcycle": 6944,
      "shutoff": 6945,
      "shudders": 6946,
      "dollars": 6947,
      "terrifying": 6948,
      "defense": 6949,
      "scamper": 6950,
      "scampers": 6951,
      "prototype": 6952,
      "laboratory": 6953,
      "floods": 6954,
      "desperate": 6955,
      "collapse": 6956,
      "assumption": 6957,
      "assumptions": 6958,
      "universal": 6959,
      "university": 6960,
      "explorer": 6961,
      "Eleven": 6962,
      "Launch": 6963,
      "Luther": 6964,
      "Maximum": 6965,
      "PhD": 6966,
      "bacteria": 6967,
      "caveman": 6968,
      "duration": 6969,
      "furnace": 6970,
      "grim": 6971,
      "hinges": 6972,
      "psycho": 6973,
      "title": 6974,
      "wounded": 6975,
      "“♩♪": 6976,
      "thumbs": 6977,
      "rescue": 6978,
      "stimulus": 6979,
      "chips": 6980,
      "sailor": 6981,
      "convenient": 6982,
      "directed": 6983,
      "dictable": 6984,
      "decelerating": 6985,
      "audio": 6986,
      "introdu": 6987,
      "intensely": 6988,
      "graceful": 6989,
      "blinding": 6990,
      "challeng": 6991,
      "discovery": 6992,
      "calibr": 6993,
      "sleeve": 6994,
      "deserve": 6995,
      "shooting": 6996,
      "duffel": 6997,
      "pipettes": 6998,
      "electromagnetic": 6999,
      "snicker": 7000,
      "characters": 7001,
      "sacrificed": 7002,
      "Building": 7003,
      "Clank": 7004,
      "Crazy": 7005,
      "Captain": 7006,
      "Fairly": 7007,
      "Greek": 7008,
      "Geneva": 7009,
      "Oxygen": 7010,
      "Proper": 7011,
      "Relat": 7012,
      "Visible": 7013,
      "bastards": 7014,
      "gigantic": 7015,
      "ninth": 7016,
      "insect": 7017,
      "invention": 7018,
      "instructions": 7019,
      "stalk": 7020,
      "membrane": 7021,
      "arrived": 7022,
      "habitable": 7023,
      "escaped": 7024,
      "ascals": 7025,
      "limits": 7026,
      "wiggled": 7027,
      "unpredictable": 7028,
      "mobile": 7029,
      "copious": 7030,
      "negligence": 7031,
      "weapons": 7032,
      "suspicion": 7033,
      "terabytes": 7034,
      "silicon": 7035,
      "perfected": 7036,
      "permanent": 7037,
      "proximity": 7038,
      "illuminating": 7039,
      "aggres": 7040,
      "twentieth": 7041,
      "ultraviolet": 7042,
      "compatible": 7043,
      "overwhelming": 7044,
      "clenched": 7045,
      "stubborn": 7046,
      "milligram": 7047,
      "microbiologist": 7048,
      "replica": 7049,
      "applications": 7050,
      "elliptical": 7051,
      "hyperventil": 7052,
      "frustrated": 7053,
      "discussion": 7054,
      "independently": 7055,
      "Neutrinos": 7056,
      "potatoes": 7057,
      "dedicated": 7058,
      "heavier": 7059,
      "gentlemen": 7060,
      "magnification": 7061,
      "accommod": 7062,
      "Above": 7063,
      "British": 7064,
      "Canton": 7065,
      "Columb": 7066,
      "Dutch": 7067,
      "Destroy": 7068,
      "GCRs": 7069,
      "Jupiter": 7070,
      "Linda": 7071,
      "MANUAL": 7072,
      "MKS2": 7073,
      "Paraguay": 7074,
      "Siri": 7075,
      "Single": 7076,
      "Saskatchew": 7077,
      "eternity": 7078,
      "fault": 7079,
      "gadget": 7080,
      "giddy": 7081,
      "narrow": 7082,
      "naked": 7083,
      "nutrition": 7084,
      "ogens": 7085,
      "whale": 7086,
      "integrity": 7087,
      "infrastructure": 7088,
      "resembling": 7089,
      "sturdy": 7090,
      "helipad": 7091,
      "hectopascals": 7092,
      "metamorphic": 7093,
      "especially": 7094,
      "aligned": 7095,
      "geodesic": 7096,
      "absently": 7097,
      "abdominal": 7098,
      "administrator": 7099,
      "unmanned": 7100,
      "chimes": 7101,
      "nebula": 7102,
      "shuffle": 7103,
      "concepts": 7104,
      "difficult": 7105,
      "scramble": 7106,
      "exercise": 7107,
      "hospital": 7108,
      "opportun": 7109,
      "attentive": 7110,
      "hassling": 7111,
      "contraption": 7112,
      "centrifugal": 7113,
      "cluded": 7114,
      "pantomime": 7115,
      "International": 7116,
      "trajectory": 7117,
      "Believe": 7118,
      "Cosmodrome": 7119,
      "significant": 7120,
      "REMAINING": 7121,
      "symmetrical": 7122,
      "Specialist": 7123,
      "hyperventilate": 7124,
      "Saskatchewan": 7125,
      "!).": 7126,
      "%.": 7127,
      "04": 7128,
      "05": 7129,
      "045": 7130,
      "16": 7131,
      "130": 7132,
      "27": 7133,
      "360": 7134,
      "44": 7135,
      "462": 7136,
      "64": 7137,
      "65": 7138,
      "600": 7139,
      "78": 7140,
      "86": 7141,
      "800": 7142,
      "95": 7143,
      "99": 7144,
      "984": 7145,
      "Au": 7146,
      "Ahe": 7147,
      "Aha": 7148,
      "Asi": 7149,
      "Along": 7150,
      "Agency": 7151,
      "ASU": 7152,
      "BI": 7153,
      "Ball": 7154,
      "Blo": 7155,
      "Bra": 7156,
      "Bot": 7157,
      "BAT": 7158,
      "Based": 7159,
      "Boring": 7160,
      "Cy": 7161,
      "Car": 7162,
      "Cha": 7163,
      "Cour": 7164,
      "City": 7165,
      "Center": 7166,
      "Clear": 7167,
      "CTO": 7168,
      "Close": 7169,
      "DE": 7170,
      "Dat": 7171,
      "Def": 7172,
      "ES": 7173,
      "Ein": 7174,
      "Ever": 7175,
      "Emp": 7176,
      "Eva": 7177,
      "FE": 7178,
      "Fe": 7179,
      "Fl": 7180,
      "Fr": 7181,
      "Fou": 7182,
      "Fly": 7183,
      "Fri": 7184,
      "Fam": 7185,
      "Fig": 7186,
      "Full": 7187,
      "Fff": 7188,
      "Farm": 7189,
      "Flat": 7190,
      "FER": 7191,
      "Faster": 7192,
      "Flaw": 7193,
      "FBI": 7194,
      "GU": 7195,
      "Gas": 7196,
      "Gone": 7197,
      "Gener": 7198,
      "Glad": 7199,
      "Gather": 7200,
      "GEN": 7201,
      "Hor": 7202,
      "Has": 7203,
      "Hans": 7204,
      "Hull": 7205,
      "Hot": 7206,
      "Hero": 7207,
      "Hundred": 7208,
      "Hurry": 7209,
      "IC": 7210,
      "Ir": 7211,
      "Imp": 7212,
      "ION": 7213,
      "ICT": 7214,
      "Jer": 7215,
      "Jes": 7216,
      "Kno": 7217,
      "Kids": 7218,
      "Kaz": 7219,
      "Last": 7220,
      "Line": 7221,
      "Lear": 7222,
      "Langu": 7223,
      "Lord": 7224,
      "LAT": 7225,
      "LAR": 7226,
      "Little": 7227,
      "Mm": 7228,
      "Mat": 7229,
      "Mine": 7230,
      "Mach": 7231,
      "Made": 7232,
      "Meas": 7233,
      "Math": 7234,
      "Mmm": 7235,
      "MAT": 7236,
      "Mix": 7237,
      "Makes": 7238,
      "MAL": 7239,
      "Multi": 7240,
      "Millions": 7241,
      "MPTION": 7242,
      "Mission": 7243,
      "NG": 7244,
      "National": 7245,
      "Natural": 7246,
      "NBL": 7247,
      "Nnn": 7248,
      "Nanny": 7249,
      "OH": 7250,
      "OU": 7251,
      "Oc": 7252,
      "OFF": 7253,
      "OMAL": 7254,
      "PP": 7255,
      "Pi": 7256,
      "Pr": 7257,
      "Pare": 7258,
      "Power": 7259,
      "Pump": 7260,
      "Pitch": 7261,
      "PER": 7262,
      "Parti": 7263,
      "Paris": 7264,
      "PRED": 7265,
      "Patient": 7266,
      "QU": 7267,
      "RY": 7268,
      "Res": 7269,
      "Rice": 7270,
      "Rele": 7271,
      "RRE": 7272,
      "Rather": 7273,
      "SE": 7274,
      "Sl": 7275,
      "Sy": 7276,
      "Say": 7277,
      "Side": 7278,
      "Sound": 7279,
      "Sep": 7280,
      "Sick": 7281,
      "Sens": 7282,
      "South": 7283,
      "Shu": 7284,
      "Sending": 7285,
      "Scot": 7286,
      "Tr": 7287,
      "Ty": 7288,
      "Tre": 7289,
      "Ter": 7290,
      "Tha": 7291,
      "Tas": 7292,
      "Tam": 7293,
      "Test": 7294,
      "Tru": 7295,
      "Task": 7296,
      "Text": 7297,
      "Tiny": 7298,
      "Twelve": 7299,
      "Tried": 7300,
      "TEM": 7301,
      "TRA": 7302,
      "UN": 7303,
      "Util": 7304,
      "Using": 7305,
      "URE": 7306,
      "Vat": 7307,
      "Wi": 7308,
      "Wr": 7309,
      "Wash": 7310,
      "Waa": 7311,
      "Wik": 7312,
      "WIS": 7313,
      "Yo": 7314,
      "Yup": 7315,
      "Yet": 7316,
      "Yaw": 7317,
      "YOU": 7318,
      "Zy": 7319,
      "Zone": 7320,
      "aer": 7321,
      "aid": 7322,
      "aes": 7323,
      "ahed": 7324,
      "awash": 7325,
      "bc": 7326,
      "bun": 7327,
      "batt": 7328,
      "bite": 7329,
      "bies": 7330,
      "bank": 7331,
      "bird": 7332,
      "bowed": 7333,
      "bbing": 7334,
      "bbles": 7335,
      "beneath": 7336,
      "binder": 7337,
      "cin": 7338,
      "cit": 7339,
      "cip": 7340,
      "cart": 7341,
      "cers": 7342,
      "crow": 7343,
      "cared": 7344,
      "cue": 7345,
      "cash": 7346,
      "camp": 7347,
      "cities": 7348,
      "cceed": 7349,
      "den": 7350,
      "dab": 7351,
      "dour": 7352,
      "dart": 7353,
      "dirty": 7354,
      "ev": 7355,
      "ego": 7356,
      "eff": 7357,
      "ecut": 7358,
      "emul": 7359,
      "eclip": 7360,
      "fou": 7361,
      "fare": 7362,
      "fans": 7363,
      "fty": 7364,
      "fla": 7365,
      "fran": 7366,
      "flaw": 7367,
      "fusion": 7368,
      "gor": 7369,
      "gar": 7370,
      "gut": 7371,
      "gall": 7372,
      "gir": 7373,
      "gum": 7374,
      "gate": 7375,
      "gers": 7376,
      "gious": 7377,
      "glean": 7378,
      "hst": 7379,
      "hany": 7380,
      "hill": 7381,
      "hive": 7382,
      "hous": 7383,
      "hiding": 7384,
      "ire": 7385,
      "iers": 7386,
      "iance": 7387,
      "iful": 7388,
      "ivers": 7389,
      "ilocks": 7390,
      "jok": 7391,
      "jol": 7392,
      "jars": 7393,
      "jot": 7394,
      "joules": 7395,
      "juts": 7396,
      "kl": 7397,
      "kitch": 7398,
      "kps": 7399,
      "kiss": 7400,
      "lated": 7401,
      "lph": 7402,
      "lump": 7403,
      "lung": 7404,
      "lished": 7405,
      "lators": 7406,
      "liness": 7407,
      "mid": 7408,
      "mur": 7409,
      "mull": 7410,
      "munch": 7411,
      "mory": 7412,
      "mud": 7413,
      "mummy": 7414,
      "mumbles": 7415,
      "mumm": 7416,
      "mountain": 7417,
      "nour": 7418,
      "nag": 7419,
      "nause": 7420,
      "naut": 7421,
      "nards": 7422,
      "national": 7423,
      "north": 7424,
      "nidi": 7425,
      "oy": 7426,
      "ore": 7427,
      "odo": 7428,
      "othing": 7429,
      "odi": 7430,
      "ots": 7431,
      "osing": 7432,
      "pon": 7433,
      "pis": 7434,
      "pal": 7435,
      "pace": 7436,
      "ples": 7437,
      "pher": 7438,
      "padd": 7439,
      "paces": 7440,
      "pses": 7441,
      "pinch": 7442,
      "ras": 7443,
      "rant": 7444,
      "rled": 7445,
      "rings": 7446,
      "races": 7447,
      "rarely": 7448,
      "rational": 7449,
      "rades": 7450,
      "sch": 7451,
      "ske": 7452,
      "snow": 7453,
      "shad": 7454,
      "sways": 7455,
      "skill": 7456,
      "sabo": 7457,
      "sses": 7458,
      "sends": 7459,
      "south": 7460,
      "sided": 7461,
      "skilled": 7462,
      "sarcasm": 7463,
      "tall": 7464,
      "tau": 7465,
      "tree": 7466,
      "tary": 7467,
      "tarm": 7468,
      "tangle": 7469,
      "tumbling": 7470,
      "ttled": 7471,
      "uct": 7472,
      "uation": 7473,
      "uate": 7474,
      "uine": 7475,
      "uba": 7476,
      "ufact": 7477,
      "vor": 7478,
      "vom": 7479,
      "vil": 7480,
      "vable": 7481,
      "vain": 7482,
      "vig": 7483,
      "vron": 7484,
      "vature": 7485,
      "vage": 7486,
      "viny": 7487,
      "virt": 7488,
      "vatory": 7489,
      "win": 7490,
      "wre": 7491,
      "wing": 7492,
      "ware": 7493,
      "wack": 7494,
      "wheat": 7495,
      "wider": 7496,
      "watts": 7497,
      "xious": 7498,
      "xual": 7499,
      "yel": 7500,
      "yage": 7501,
      "zzing": 7502,
      "ИЛ": 7503,
      "ИН": 7504,
      "ОБ": 7505,
      "ТЬ": 7506,
      "ХИН": 7507,
      "ЮХИН": 7508,
      "“…": 7509,
      "“♫": 7510,
      "”?": 7511,
      "”–": 7512,
      "ℓλ": 7513,
      "♩.”": 7514,
      "♩♫♩♪": 7515,
      "threading": 7516,
      "infor": 7517,
      "infu": 7518,
      "iners": 7519,
      "inject": 7520,
      "inness": 7521,
      "incorrect": 7522,
      "infle": 7523,
      "instru": 7524,
      "inorgan": 7525,
      "incub": 7526,
      "inconsist": 7527,
      "invit": 7528,
      "invest": 7529,
      "innards": 7530,
      "thed": 7531,
      "thead": 7532,
      "therap": 7533,
      "anused": 7534,
      "anony": 7535,
      "anni": 7536,
      "reh": 7537,
      "rend": 7538,
      "remin": 7539,
      "reward": 7540,
      "renew": 7541,
      "resealed": 7542,
      "reling": 7543,
      "recover": 7544,
      "retre": 7545,
      "retro": 7546,
      "reverse": 7547,
      "reprogram": 7548,
      "resolved": 7549,
      "receive": 7550,
      "refuse": 7551,
      "reception": 7552,
      "redom": 7553,
      "oning": 7554,
      "oned": 7555,
      "onation": 7556,
      "onies": 7557,
      "onboard": 7558,
      "atter": 7559,
      "atform": 7560,
      "attemp": 7561,
      "atues": 7562,
      "attered": 7563,
      "erful": 7564,
      "errors": 7565,
      "toy": 7566,
      "toast": 7567,
      "toler": 7568,
      "torical": 7569,
      "totally": 7570,
      "ouch": 7571,
      "ena": 7572,
      "enge": 7573,
      "enet": 7574,
      "enable": 7575,
      "ensive": 7576,
      "encas": 7577,
      "enzy": 7578,
      "encoun": 7579,
      "sted": 7580,
      "stir": 7581,
      "stone": 7582,
      "stair": 7583,
      "stain": 7584,
      "stap": 7585,
      "stero": 7586,
      "stances": 7587,
      "stressed": 7588,
      "stumbled": 7589,
      "heter": 7590,
      "hesit": 7591,
      "hesive": 7592,
      "llions": 7593,
      "ington": 7594,
      "leered": 7595,
      "legged": 7596,
      "leges": 7597,
      "levision": 7598,
      "mesh": 7599,
      "meag": 7600,
      "mered": 7601,
      "metry": 7602,
      "mebur": 7603,
      "mega": 7604,
      "ora": 7605,
      "orb": 7606,
      "org": 7607,
      "orn": 7608,
      "orary": 7609,
      "orna": 7610,
      "ordered": 7611,
      "orbits": 7612,
      "iscent": 7613,
      "isition": 7614,
      "arse": 7615,
      "arity": 7616,
      "arative": 7617,
      "rod": 7618,
      "rog": 7619,
      "role": 7620,
      "rode": 7621,
      "edible": 7622,
      "edia": 7623,
      "hay": 7624,
      "haze": 7625,
      "hazy": 7626,
      "haps": 7627,
      "halting": 7628,
      "havior": 7629,
      "sess": 7630,
      "ows": 7631,
      "idle": 7632,
      "idgen": 7633,
      "idio": 7634,
      "esh": 7635,
      "escent": 7636,
      "aspe": 7637,
      "assho": 7638,
      "assistant": 7639,
      "assigned": 7640,
      "acon": 7641,
      "acious": 7642,
      "bear": 7643,
      "bees": 7644,
      "belong": 7645,
      "beak": 7646,
      "becoming": 7647,
      "beaut": 7648,
      "bearing": 7649,
      "begun": 7650,
      "behavior": 7651,
      "beacon": 7652,
      "aling": 7653,
      "aline": 7654,
      "alous": 7655,
      "alized": 7656,
      "alpha": 7657,
      "getic": 7658,
      "lian": 7659,
      "lior": 7660,
      "lice": 7661,
      "limp": 7662,
      "limb": 7663,
      "lived": 7664,
      "lief": 7665,
      "ticks": 7666,
      "ticket": 7667,
      "tippy": 7668,
      "allot": 7669,
      "loved": 7670,
      "losing": 7671,
      "lops": 7672,
      "ckey": 7673,
      "abdo": 7674,
      "abble": 7675,
      "abstr": 7676,
      "absolute": 7677,
      "ablished": 7678,
      "ado": 7679,
      "ads": 7680,
      "ading": 7681,
      "admon": 7682,
      "adies": 7683,
      "adren": 7684,
      "adjac": 7685,
      "forman": 7686,
      "entr": 7687,
      "ental": 7688,
      "entation": 7689,
      "entities": 7690,
      "unlock": 7691,
      "unspo": 7692,
      "unscientific": 7693,
      "unspool": 7694,
      "unsteady": 7695,
      "unbelie": 7696,
      "unknown": 7697,
      "untrust": 7698,
      "uninstalled": 7699,
      "unlimited": 7700,
      "unpleasant": 7701,
      "undivided": 7702,
      "unmodified": 7703,
      "unadul": 7704,
      "unspoken": 7705,
      "unhitch": 7706,
      "unciation": 7707,
      "ching": 7708,
      "chry": 7709,
      "chron": 7710,
      "charm": 7711,
      "moly": 7712,
      "moons": 7713,
      "mottled": 7714,
      "keys": 7715,
      "rib": 7716,
      "rier": 7717,
      "rict": 7718,
      "ripped": 7719,
      "nood": 7720,
      "nook": 7721,
      "vert": 7722,
      "verge": 7723,
      "versa": 7724,
      "whump": 7725,
      "sores": 7726,
      "soci": 7727,
      "sopher": 7728,
      "cos": 7729,
      "cose": 7730,
      "comin": 7731,
      "cols": 7732,
      "cocks": 7733,
      "coordin": 7734,
      "irked": 7735,
      "outward": 7736,
      "outcome": 7737,
      "outbreak": 7738,
      "outfit": 7739,
      "neither": 7740,
      "neural": 7741,
      "shin": 7742,
      "shing": 7743,
      "shown": 7744,
      "shards": 7745,
      "shorter": 7746,
      "dope": 7747,
      "doms": 7748,
      "doable": 7749,
      "docking": 7750,
      "dolph": 7751,
      "spun": 7752,
      "spind": 7753,
      "split": 7754,
      "splat": 7755,
      "splic": 7756,
      "spaced": 7757,
      "sputter": 7758,
      "splits": 7759,
      "spacious": 7760,
      "withstand": 7761,
      "sul": 7762,
      "suck": 7763,
      "sump": 7764,
      "sucked": 7765,
      "sufficient": 7766,
      "suka": 7767,
      "succeed": 7768,
      "sustain": 7769,
      "sages": 7770,
      "safer": 7771,
      "ustion": 7772,
      "feat": 7773,
      "femin": 7774,
      "fetal": 7775,
      "female": 7776,
      "mpse": 7777,
      "mption": 7778,
      "god": 7779,
      "goo": 7780,
      "gods": 7781,
      "Thin": 7782,
      "Throw": 7783,
      "Through": 7784,
      "conv": 7785,
      "contr": 7786,
      "consol": 7787,
      "contest": 7788,
      "conical": 7789,
      "contract": 7790,
      "constri": 7791,
      "consoles": 7792,
      "tees": 7793,
      "teles": 7794,
      "tearing": 7795,
      "television": 7796,
      "thingy": 7797,
      "onetwentieth": 7798,
      "ups": 7799,
      "upon": 7800,
      "upstairs": 7801,
      "maze": 7802,
      "master": 7803,
      "mainten": 7804,
      "raind": 7805,
      "cans": 7806,
      "canister": 7807,
      "terated": 7808,
      "ets": 7809,
      "etitive": 7810,
      "dip": 7811,
      "distill": 7812,
      "dicted": 7813,
      "divers": 7814,
      "diplo": 7815,
      "dizzy": 7816,
      "decl": 7817,
      "deft": 7818,
      "demon": 7819,
      "delive": 7820,
      "depress": 7821,
      "dels": 7822,
      "defle": 7823,
      "dereli": 7824,
      "depend": 7825,
      "destruction": 7826,
      "devic": 7827,
      "depressurize": 7828,
      "devoid": 7829,
      "degenerate": 7830,
      "determin": 7831,
      "rops": 7832,
      "ipher": 7833,
      "iphany": 7834,
      "ipedia": 7835,
      "iccated": 7836,
      "queasy": 7837,
      "quake": 7838,
      "quie": 7839,
      "quaver": 7840,
      "urt": 7841,
      "urposed": 7842,
      "Heat": 7843,
      "pest": 7844,
      "peasy": 7845,
      "peaks": 7846,
      "user": 7847,
      "thery": 7848,
      "eland": 7849,
      "elids": 7850,
      "ctations": 7851,
      "acks": 7852,
      "worn": 7853,
      "romantic": 7854,
      "auri": 7855,
      "noting": 7856,
      "tag": 7857,
      "taper": 7858,
      "tail": 7859,
      "taint": 7860,
      "siology": 7861,
      "perks": 7862,
      "perform": 7863,
      "percei": 7864,
      "perception": 7865,
      "peripher": 7866,
      "umsy": 7867,
      "umulated": 7868,
      "sci": 7869,
      "scar": 7870,
      "scal": 7871,
      "scut": 7872,
      "scur": 7873,
      "scene": 7874,
      "scuba": 7875,
      "pole": 7876,
      "poor": 7877,
      "pothesis": 7878,
      "exits": 7879,
      "excess": 7880,
      "exchange": 7881,
      "expose": 7882,
      "excellent": 7883,
      "exited": 7884,
      "exagger": 7885,
      "execut": 7886,
      "hop": 7887,
      "hood": 7888,
      "hobble": 7889,
      "hosts": 7890,
      "Room": 7891,
      "Robo": 7892,
      "plag": 7893,
      "platform": 7894,
      "prob": 7895,
      "proves": 7896,
      "proved": 7897,
      "protest": 7898,
      "proton": 7899,
      "probes": 7900,
      "protested": 7901,
      "proceed": 7902,
      "protrus": 7903,
      "fuck": 7904,
      "fucking": 7905,
      "fueled": 7906,
      "hissing": 7907,
      "historical": 7908,
      "backs": 7909,
      "backlight": 7910,
      "omnidi": 7911,
      "ilit": 7912,
      "iland": 7913,
      "ille": 7914,
      "Sovi": 7915,
      "inefficient": 7916,
      "preference": 7917,
      "pretend": 7918,
      "Nobody": 7919,
      "lighter": 7920,
      "lighten": 7921,
      "lightproof": 7922,
      "amm": 7923,
      "ams": 7924,
      "ify": 7925,
      "arded": 7926,
      "agents": 7927,
      "bosses": 7928,
      "fog": 7929,
      "foggy": 7930,
      "handing": 7931,
      "handrail": 7932,
      "worker": 7933,
      "worktable": 7934,
      "attend": 7935,
      "attaches": 7936,
      "epie": 7937,
      "epiphany": 7938,
      "ulse": 7939,
      "ulate": 7940,
      "ulates": 7941,
      "arts": 7942,
      "sideways": 7943,
      "blem": 7944,
      "established": 7945,
      "genuine": 7946,
      "aintiff": 7947,
      "compe": 7948,
      "comply": 7949,
      "compressed": 7950,
      "composition": 7951,
      "component": 7952,
      "compreh": 7953,
      "comparative": 7954,
      "rightmost": 7955,
      "stem": 7956,
      "stew": 7957,
      "stein": 7958,
      "steep": 7959,
      "steak": 7960,
      "stealing": 7961,
      "igue": 7962,
      "achie": 7963,
      "littered": 7964,
      "intent": 7965,
      "intend": 7966,
      "intrep": 7967,
      "intric": 7968,
      "intensity": 7969,
      "endant": 7970,
      "cheers": 7971,
      "cheese": 7972,
      "chevron": 7973,
      "Theresa": 7974,
      "Therefore": 7975,
      "roommate": 7976,
      "roommates": 7977,
      "overpressure": 7978,
      "overlap": 7979,
      "overthinking": 7980,
      "overpowering": 7981,
      "makeup": 7982,
      "anged": 7983,
      "angible": 7984,
      "contents": 7985,
      "spear": 7986,
      "hermetic": 7987,
      "lockdown": 7988,
      "grape": 7989,
      "gravy": 7990,
      "Struct": 7991,
      "centers": 7992,
      "wakes": 7993,
      "waaa": 7994,
      "dried": 7995,
      "driven": 7996,
      "driving": 7997,
      "storing": 7998,
      "stopping": 7999,
      "shed": 8000,
      "shear": 8001,
      "sheaf": 8002,
      "shelters": 8003,
      "guest": 8004,
      "guesses": 8005,
      "ffled": 8006,
      "whenever": 8007,
      "Taumoeba82": 8008,
      "amelior": 8009,
      "smidgen": 8010,
      "smirked": 8011,
      "vist": 8012,
      "vials": 8013,
      "vileges": 8014,
      "crease": 8015,
      "breached": 8016,
      "breaches": 8017,
      "condens": 8018,
      "screamed": 8019,
      "ickkn": 8020,
      "cycling": 8021,
      "grant": 8022,
      "grumbled": 8023,
      "heading": 8024,
      "headache": 8025,
      "slur": 8026,
      "sliding": 8027,
      "cla": 8028,
      "clut": 8029,
      "clone": 8030,
      "clam": 8031,
      "clunks": 8032,
      "clarity": 8033,
      "clumsy": 8034,
      "mination": 8035,
      "planned": 8036,
      "talent": 8037,
      "tinge": 8038,
      "enger": 8039,
      "firing": 8040,
      "surger": 8041,
      "yours": 8042,
      "closure": 8043,
      "blown": 8044,
      "chal": 8045,
      "chaos": 8046,
      "causes": 8047,
      "mating": 8048,
      "matters": 8049,
      "comrades": 8050,
      "rud": 8051,
      "rules": 8052,
      "ruled": 8053,
      "tric": 8054,
      "triple": 8055,
      "trillions": 8056,
      "tically": 8057,
      "floated": 8058,
      "flopped": 8059,
      "selfish": 8060,
      "akhst": 8061,
      "holders": 8062,
      "happier": 8063,
      "Instr": 8064,
      "Instant": 8065,
      "Increase": 8066,
      "fires": 8067,
      "unchanged": 8068,
      "monkey": 8069,
      "settles": 8070,
      "oblong": 8071,
      "presence": 8072,
      "presents": 8073,
      "osexual": 8074,
      "Alliance": 8075,
      "standards": 8076,
      "spacefaring": 8077,
      "manually": 8078,
      "mankind": 8079,
      "manner": 8080,
      "manufact": 8081,
      "leted": 8082,
      "letting": 8083,
      "glances": 8084,
      "glasses": 8085,
      "lazy": 8086,
      "energ": 8087,
      "underside": 8088,
      "kilos": 8089,
      "disable": 8090,
      "dismis": 8091,
      "dissolved": 8092,
      "discovering": 8093,
      "discern": 8094,
      "torso": 8095,
      "torment": 8096,
      "misalign": 8097,
      "sunk": 8098,
      "sunspot": 8099,
      "flatt": 8100,
      "flap": 8101,
      "fluff": 8102,
      "flashes": 8103,
      "handsha": 8104,
      "calmed": 8105,
      "calories": 8106,
      "energystorage": 8107,
      "crewcompartment": 8108,
      "Yellow": 8109,
      "server": 8110,
      "serving": 8111,
      "servatory": 8112,
      "entially": 8113,
      "bran": 8114,
      "brace": 8115,
      "brunt": 8116,
      "formal": 8117,
      "pivo": 8118,
      "remely": 8119,
      "remembers": 8120,
      "starves": 8121,
      "starved": 8122,
      "starvation": 8123,
      "starkly": 8124,
      "doorway": 8125,
      "suited": 8126,
      "Noted": 8127,
      "Analy": 8128,
      "Analysis": 8129,
      "Golly": 8130,
      "tenth": 8131,
      "bug": 8132,
      "buy": 8133,
      "burial": 8134,
      "arming": 8135,
      "correction": 8136,
      "corpses": 8137,
      "rows": 8138,
      "Cell": 8139,
      "Celebr": 8140,
      "tops": 8141,
      "shall": 8142,
      "shaving": 8143,
      "shaking": 8144,
      "shallow": 8145,
      "shambles": 8146,
      "newly": 8147,
      "heats": 8148,
      "trap": 8149,
      "traveled": 8150,
      "waiter": 8151,
      "cessive": 8152,
      "impending": 8153,
      "impressed": 8154,
      "impatient": 8155,
      "ava": 8156,
      "aval": 8157,
      "toned": 8158,
      "strated": 8159,
      "stranger": 8160,
      "temples": 8161,
      "temporary": 8162,
      "pudd": 8163,
      "puckey": 8164,
      "park": 8165,
      "mainly": 8166,
      "Goodbye": 8167,
      "Venusian": 8168,
      "Being": 8169,
      "Begin": 8170,
      "awatts": 8171,
      "fours": 8172,
      "radiating": 8173,
      "differences": 8174,
      "rectangular": 8175,
      "generous": 8176,
      "generated": 8177,
      "sixth": 8178,
      "movements": 8179,
      "grabbing": 8180,
      "interval": 8181,
      "interchange": 8182,
      "interrog": 8183,
      "orbiting": 8184,
      "BlipA": 8185,
      "lates": 8186,
      "latches": 8187,
      "latitude": 8188,
      "lattice": 8189,
      "wracking": 8190,
      "bedsheet": 8191,
      "bedsores": 8192,
      "supplied": 8193,
      "odynamics": 8194,
      "equally": 8195,
      "equator": 8196,
      "bottle": 8197,
      "curl": 8198,
      "curled": 8199,
      "curls": 8200,
      "curvature": 8201,
      "wondered": 8202,
      "ysical": 8203,
      "Att": 8204,
      "Onward": 8205,
      "ishing": 8206,
      "rotting": 8207,
      "rotted": 8208,
      "containing": 8209,
      "clearance": 8210,
      "biowe": 8211,
      "cult": 8212,
      "culpr": 8213,
      "isters": 8214,
      "philo": 8215,
      "powerhouse": 8216,
      "thrusters": 8217,
      "understandably": 8218,
      "hundredth": 8219,
      "paperwork": 8220,
      "Models": 8221,
      "cram": 8222,
      "lasts": 8223,
      "lasted": 8224,
      "collides": 8225,
      "collisions": 8226,
      "homework": 8227,
      "homemade": 8228,
      "blackout": 8229,
      "blackbody": 8230,
      "imentary": 8231,
      "extended": 8232,
      "remembering": 8233,
      "elev": 8234,
      "element": 8235,
      "elected": 8236,
      "shoes": 8237,
      "shoved": 8238,
      "sounding": 8239,
      "sounded": 8240,
      "vote": 8241,
      "voyage": 8242,
      "squared": 8243,
      "media": 8244,
      "microbe": 8245,
      "micrograms": 8246,
      "microbiology": 8247,
      "Grand": 8248,
      "Ground": 8249,
      "crust": 8250,
      "killing": 8251,
      "lowball": 8252,
      "experimenting": 8253,
      "Anywhere": 8254,
      "cutoff": 8255,
      "centerline": 8256,
      "Ask": 8257,
      "Assump": 8258,
      "replies": 8259,
      "repurposed": 8260,
      "evolves": 8261,
      "Coma": 8262,
      "IRED": 8263,
      "valise": 8264,
      "hopeless": 8265,
      "hopelessly": 8266,
      "Boom": 8267,
      "bulence": 8268,
      "nerd": 8269,
      "nerve": 8270,
      "bringing": 8271,
      "droplet": 8272,
      "reasons": 8273,
      "reasonably": 8274,
      "basics": 8275,
      "basket": 8276,
      "Whenever": 8277,
      "Progress": 8278,
      "Problem": 8279,
      "apparent": 8280,
      "afterward": 8281,
      "ceram": 8282,
      "certaint": 8283,
      "drafted": 8284,
      "lands": 8285,
      "fications": 8286,
      "founded": 8287,
      "tubing": 8288,
      "leader": 8289,
      "leaders": 8290,
      "expecting": 8291,
      "speeds": 8292,
      "breakthrough": 8293,
      "realized": 8294,
      "realization": 8295,
      "wrongness": 8296,
      "Alpha": 8297,
      "decade": 8298,
      "decisions": 8299,
      "efit": 8300,
      "hurting": 8301,
      "winds": 8302,
      "eighteen": 8303,
      "izer": 8304,
      "tedly": 8305,
      "vacation": 8306,
      "resses": 8307,
      "measurements": 8308,
      "techs": 8309,
      "distances": 8310,
      "distinct": 8311,
      "explaining": 8312,
      "osed": 8313,
      "compartments": 8314,
      "magnet": 8315,
      "choices": 8316,
      "simpler": 8317,
      "astronomy": 8318,
      "assuming": 8319,
      "tethering": 8320,
      "Spain": 8321,
      "figur": 8322,
      "figuring": 8323,
      "environments": 8324,
      "environmental": 8325,
      "sedimentary": 8326,
      "walks": 8327,
      "meets": 8328,
      "flashing": 8329,
      "laterally": 8330,
      "picking": 8331,
      "udged": 8332,
      "logically": 8333,
      "safest": 8334,
      "personnel": 8335,
      "smelling": 8336,
      "smelled": 8337,
      "Reg": 8338,
      "Real": 8339,
      "Recalibr": 8340,
      "brave": 8341,
      "expensive": 8342,
      "plays": 8343,
      "Within": 8344,
      "rectional": 8345,
      "Underneath": 8346,
      "swarming": 8347,
      "leathery": 8348,
      "bulbs": 8349,
      "signaled": 8350,
      "Seventeen": 8351,
      "Security": 8352,
      "beri": 8353,
      "bert": 8354,
      "bunkroom": 8355,
      "commend": 8356,
      "supports": 8357,
      "bounced": 8358,
      "flex": 8359,
      "nineteen": 8360,
      "rolling": 8361,
      "rocking": 8362,
      "transform": 8363,
      "translate": 8364,
      "translates": 8365,
      "answering": 8366,
      "grammar": 8367,
      "causing": 8368,
      "flypaper": 8369,
      "layers": 8370,
      "mounts": 8371,
      "passenger": 8372,
      "buildup": 8373,
      "specialized": 8374,
      "specialists": 8375,
      "Absurd": 8376,
      "detaches": 8377,
      "ellant": 8378,
      "freezer": 8379,
      "freezes": 8380,
      "hypothesis": 8381,
      "piping": 8382,
      "piped": 8383,
      "pipel": 8384,
      "painless": 8385,
      "structi": 8386,
      "leaning": 8387,
      "colony": 8388,
      "colonies": 8389,
      "positions": 8390,
      "CORRE": 8391,
      "Char": 8392,
      "huff": 8393,
      "infestation": 8394,
      "cooler": 8395,
      "subside": 8396,
      "subtle": 8397,
      "subset": 8398,
      "subconscious": 8399,
      "subsides": 8400,
      "surprising": 8401,
      "Memory": 8402,
      "marble": 8403,
      "marvel": 8404,
      "marines": 8405,
      "mariners": 8406,
      "propellant": 8407,
      "repeating": 8408,
      "travels": 8409,
      "traveling": 8410,
      "organized": 8411,
      "tighter": 8412,
      "Thankfully": 8413,
      "farming": 8414,
      "calculation": 8415,
      "glove": 8416,
      "intellectual": 8417,
      "motionless": 8418,
      "solutions": 8419,
      "firecrack": 8420,
      "jumping": 8421,
      "reliability": 8422,
      "religion": 8423,
      "memor": 8424,
      "liquor": 8425,
      "ramid": 8426,
      "processing": 8427,
      "approve": 8428,
      "approving": 8429,
      "continu": 8430,
      "fficien": 8431,
      "SAFER": 8432,
      "Univers": 8433,
      "warble": 8434,
      "warrant": 8435,
      "hexagon": 8436,
      "hexagons": 8437,
      "detecting": 8438,
      "drifted": 8439,
      "Consider": 8440,
      "grown": 8441,
      "nukes": 8442,
      "widest": 8443,
      "♫♪,”": 8444,
      "♫♪♫♪♩": 8445,
      "♫♪♫,”": 8446,
      "adjustments": 8447,
      "facto": 8448,
      "flies": 8449,
      "flicked": 8450,
      "gaining": 8451,
      "ilize": 8452,
      "thinner": 8453,
      "relented": 8454,
      "separately": 8455,
      "physically": 8456,
      "blooded": 8457,
      "bloodstream": 8458,
      "explode": 8459,
      "explodes": 8460,
      "gaze": 8461,
      "machines": 8462,
      "street": 8463,
      "streak": 8464,
      "strewn": 8465,
      "protected": 8466,
      "seemingly": 8467,
      "functioning": 8468,
      "Among": 8469,
      "joint": 8470,
      "joining": 8471,
      "joints": 8472,
      "marked": 8473,
      "purposes": 8474,
      "packaged": 8475,
      "swearing": 8476,
      "sips": 8477,
      "sipper": 8478,
      "sipped": 8479,
      "sippy": 8480,
      "zoomed": 8481,
      "animation": 8482,
      "reflects": 8483,
      "ordering": 8484,
      "lifted": 8485,
      "fella": 8486,
      "worthy": 8487,
      "worthless": 8488,
      "internally": 8489,
      "internals": 8490,
      "Compartment": 8491,
      "Deep": 8492,
      "Left": 8493,
      "Leave": 8494,
      "occluded": 8495,
      "pride": 8496,
      "printer": 8497,
      "onesie": 8498,
      "accumulated": 8499,
      "shuts": 8500,
      "welry": 8501,
      "welcome": 8502,
      "weightlessness": 8503,
      "teams": 8504,
      "tracks": 8505,
      "tracking": 8506,
      "ERRO": 8507,
      "ERGEN": 8508,
      "bribes": 8509,
      "ciled": 8510,
      "knocks": 8511,
      "sniff": 8512,
      "zzle": 8513,
      "outermost": 8514,
      "rapidly": 8515,
      "spooling": 8516,
      "responsible": 8517,
      "affect": 8518,
      "cataly": 8519,
      "counsel": 8520,
      "operator": 8521,
      "oddly": 8522,
      "scape": 8523,
      "spectroscope": 8524,
      "spectroscopy": 8525,
      "visiblelight": 8526,
      "ATUS": 8527,
      "ATURE": 8528,
      "candescent": 8529,
      "eyelids": 8530,
      "eyepie": 8531,
      "imagin": 8532,
      "imagined": 8533,
      "imagination": 8534,
      "kicking": 8535,
      "lowercase": 8536,
      "region": 8537,
      "regardless": 8538,
      "beaded": 8539,
      "shifting": 8540,
      "shifted": 8541,
      "weighing": 8542,
      "contacts": 8543,
      "Interestingly": 8544,
      "hurtling": 8545,
      "RELAT": 8546,
      "REQU": 8547,
      "catching": 8548,
      "trend": 8549,
      "helioscope": 8550,
      "charged": 8551,
      "childish": 8552,
      "effortlessly": 8553,
      "multiples": 8554,
      "filament": 8555,
      "jection": 8556,
      "jewelry": 8557,
      "ometric": 8558,
      "widens": 8559,
      "surroundings": 8560,
      "manuals": 8561,
      "maintains": 8562,
      "nanograms": 8563,
      "nanosyring": 8564,
      "nanosyringe": 8565,
      "127": 8566,
      "Centauri": 8567,
      "IVE": 8568,
      "Plaintiff": 8569,
      "averted": 8570,
      "pyramid": 8571,
      "ruple": 8572,
      "sources": 8573,
      "believing": 8574,
      "believed": 8575,
      "buttload": 8576,
      "perigee": 8577,
      "periodic": 8578,
      "scraped": 8579,
      "scraping": 8580,
      "backups": 8581,
      "yells": 8582,
      "squee": 8583,
      "squeals": 8584,
      "reported": 8585,
      "blobs": 8586,
      "property": 8587,
      "smoothly": 8588,
      "schoolteacher": 8589,
      "cowboy": 8590,
      "ctively": 8591,
      "freed": 8592,
      "harmed": 8593,
      "warmth": 8594,
      "warming": 8595,
      "sexist": 8596,
      "mysteries": 8597,
      "umentation": 8598,
      "provides": 8599,
      "provided": 8600,
      "management": 8601,
      "♫♩♪♫.”": 8602,
      "spreadsheets": 8603,
      "Manual": 8604,
      "ONLINE": 8605,
      "Step": 8606,
      "World": 8607,
      "Worked": 8608,
      "affairs": 8609,
      "crud": 8610,
      "cruise": 8611,
      "lengths": 8612,
      "writhe": 8613,
      "yawn": 8614,
      "sectionality": 8615,
      "soldiers": 8616,
      "teeing": 8617,
      "peeing": 8618,
      "political": 8619,
      "politicking": 8620,
      "thankfully": 8621,
      "digitizer": 8622,
      "Fourteen": 8623,
      "Gotcha": 8624,
      "LEDs": 8625,
      "Sixth": 8626,
      "Tears": 8627,
      "nonstop": 8628,
      "pinball": 8629,
      "pinned": 8630,
      "pads": 8631,
      "wasteland": 8632,
      "sugar": 8633,
      "sugars": 8634,
      "consumption": 8635,
      "worrying": 8636,
      "plug": 8637,
      "plugs": 8638,
      "plugged": 8639,
      "truck": 8640,
      "blows": 8641,
      "blasting": 8642,
      "experiences": 8643,
      "experiencing": 8644,
      "pathway": 8645,
      "pathogens": 8646,
      "strangely": 8647,
      "cracked": 8648,
      "complexity": 8649,
      "astronomer": 8650,
      "astronomical": 8651,
      "casionally": 8652,
      "stretches": 8653,
      "Post": 8654,
      "TIME": 8655,
      "Wouldn": 8656,
      "groans": 8657,
      "groggy": 8658,
      "jerked": 8659,
      "jerky": 8660,
      "passages": 8661,
      "plop": 8662,
      "plopped": 8663,
      "salis": 8664,
      "salvage": 8665,
      "indeed": 8666,
      "indestructi": 8667,
      "antimatter": 8668,
      "reacts": 8669,
      "reacting": 8670,
      "stationary": 8671,
      "selected": 8672,
      "absurdly": 8673,
      "keyboard": 8674,
      "supercomputers": 8675,
      "pooped": 8676,
      "booties": 8677,
      "reduction": 8678,
      "official": 8679,
      "creeps": 8680,
      "controllers": 8681,
      "groups": 8682,
      "slams": 8683,
      "slammed": 8684,
      "slamming": 8685,
      "ensional": 8686,
      "fluids": 8687,
      "seriously": 8688,
      "personalities": 8689,
      "relaxed": 8690,
      "relaxes": 8691,
      "African": 8692,
      "Others": 8693,
      "Otherwise": 8694,
      "SURE": 8695,
      "SUMPTION": 8696,
      "SUPP": 8697,
      "apogee": 8698,
      "barred": 8699,
      "barreling": 8700,
      "knickkn": 8701,
      "migrating": 8702,
      "paying": 8703,
      "pillow": 8704,
      "incident": 8705,
      "insulate": 8706,
      "insulator": 8707,
      "insists": 8708,
      "toxins": 8709,
      "strict": 8710,
      "modifications": 8711,
      "Thinking": 8712,
      "Astronomy": 8713,
      "tasty": 8714,
      "tasting": 8715,
      "tastic": 8716,
      "immersed": 8717,
      "voluntary": 8718,
      "speculated": 8719,
      "speculative": 8720,
      "descended": 8721,
      "descending": 8722,
      "bulky": 8723,
      "bulkheads": 8724,
      "drinking": 8725,
      "counterpart": 8726,
      "ANGU": 8727,
      "ANOMAL": 8728,
      "MEASU": 8729,
      "Observe": 8730,
      "Observatory": 8731,
      "drug": 8732,
      "gingerly": 8733,
      "pentagons": 8734,
      "swimming": 8735,
      "swivels": 8736,
      "hallway": 8737,
      "seventythree": 8738,
      "coastline": 8739,
      "doctors": 8740,
      "script": 8741,
      "existing": 8742,
      "meaningless": 8743,
      "swabs": 8744,
      "skitter": 8745,
      "observatory": 8746,
      "broadly": 8747,
      "approximation": 8748,
      "cataloged": 8749,
      "photos": 8750,
      "laughing": 8751,
      "crawlspace": 8752,
      "pictures": 8753,
      "Prime": 8754,
      "froze": 8755,
      "fighter": 8756,
      "mush": 8757,
      "plywood": 8758,
      "ratche": 8759,
      "rushed": 8760,
      "sneaking": 8761,
      "turbulence": 8762,
      "tender": 8763,
      "vitals": 8764,
      "wandered": 8765,
      "wobbly": 8766,
      "wobbles": 8767,
      "secured": 8768,
      "combustion": 8769,
      "concentration": 8770,
      "conclusion": 8771,
      "asteroids": 8772,
      "partially": 8773,
      "curiosity": 8774,
      "sterilizing": 8775,
      "insanely": 8776,
      "prisoner": 8777,
      "exponentially": 8778,
      "CONSUMPTION": 8779,
      "responds": 8780,
      "responding": 8781,
      "thoroughly": 8782,
      "necklaces": 8783,
      "included": 8784,
      "volunteers": 8785,
      "volunteering": 8786,
      "..,": 8787,
      "Alien": 8788,
      "EMERGEN": 8789,
      "Having": 8790,
      "Micro": 8791,
      "nicer": 8792,
      "pronunciation": 8793,
      "victory": 8794,
      "instantly": 8795,
      "lizard": 8796,
      "neighbor": 8797,
      "suffering": 8798,
      "confirms": 8799,
      "digestion": 8800,
      "deemed": 8801,
      "scrabble": 8802,
      "hooked": 8803,
      "Rotation": 8804,
      "ultimately": 8805,
      "graduate": 8806,
      "equalized": 8807,
      "priorities": 8808,
      "capsules": 8809,
      "treaty": 8810,
      "freshly": 8811,
      "destroy": 8812,
      "politely": 8813,
      "fidgeting": 8814,
      "trapezoidal": 8815,
      "CTING": 8816,
      "ENTER": 8817,
      "Perfect": 8818,
      "Population": 8819,
      "Spools": 8820,
      "bullet": 8821,
      "bullshit": 8822,
      "ecosystem": 8823,
      "echolocation": 8824,
      "frown": 8825,
      "glimpse": 8826,
      "harming": 8827,
      "honoring": 8828,
      "icons": 8829,
      "muttered": 8830,
      "poured": 8831,
      "promising": 8832,
      "sloth": 8833,
      "sloppy": 8834,
      "zipped": 8835,
      "“♪♪": 8836,
      "“♪.”": 8837,
      "“♫♪♩": 8838,
      "threaded": 8839,
      "injuries": 8840,
      "indicate": 8841,
      "requested": 8842,
      "represented": 8843,
      "enrich": 8844,
      "healed": 8845,
      "meticulous": 8846,
      "secrets": 8847,
      "accounted": 8848,
      "rillic": 8849,
      "whipped": 8850,
      "whipping": 8851,
      "documents": 8852,
      "terrified": 8853,
      "dimensional": 8854,
      "defendant": 8855,
      "decomposition": 8856,
      "protocols": 8857,
      "flares": 8858,
      "desperately": 8859,
      "penetrated": 8860,
      "particularly": 8861,
      "horizontal": 8862,
      "occurs": 8863,
      "embezzle": 8864,
      "harvested": 8865,
      "pentagonally": 8866,
      "bombarded": 8867,
      "Scientists": 8868,
      "!!!": 8869,
      "198": 8870,
      "1950": 8871,
      "346": 8872,
      "348": 8873,
      "AUTO": 8874,
      "BLE": 8875,
      "Bigger": 8876,
      "Breeder": 8877,
      "Harrison": 8878,
      "Higher": 8879,
      "ISS": 8880,
      "Physical": 8881,
      "crops": 8882,
      "durable": 8883,
      "fundament": 8884,
      "laser": 8885,
      "mirror": 8886,
      "mirrors": 8887,
      "panting": 8888,
      "psych": 8889,
      "rattle": 8890,
      "rattling": 8891,
      "announcement": 8892,
      "rescued": 8893,
      "attracting": 8894,
      "attracted": 8895,
      "articulated": 8896,
      "assures": 8897,
      "modern": 8898,
      "doomsday": 8899,
      "sailors": 8900,
      "convenience": 8901,
      "departure": 8902,
      "delays": 8903,
      "decelerate": 8904,
      "audible": 8905,
      "permeate": 8906,
      "examine": 8907,
      "examining": 8908,
      "introspection": 8909,
      "whooshing": 8910,
      "greedy": 8911,
      "challenge": 8912,
      "manipulation": 8913,
      "tornado": 8914,
      "caliber": 8915,
      "deserves": 8916,
      "trailer": 8917,
      "shockwave": 8918,
      "circumference": 8919,
      "circumstances": 8920,
      "duffels": 8921,
      "pipette": 8922,
      "snickered": 8923,
      "character": 8924,
      "broadcasts": 8925,
      "pronounced": 8926,
      "shielded": 8927,
      "Evolutionary": 8928,
      "Climatolog": 8929,
      "Guinness": 8930,
      "Igno": 8931,
      "Igneous": 8932,
      "MOTION": 8933,
      "MODE": 8934,
      "ORT": 8935,
      "Roughly": 8936,
      "Storage": 8937,
      "USB": 8938,
      "benefit": 8939,
      "eagerly": 8940,
      "fantastic": 8941,
      "kinks": 8942,
      "slipped": 8943,
      "tiniest": 8944,
      "tidy": 8945,
      "vasive": 8946,
      "wrapped": 8947,
      "wrapping": 8948,
      "arguably": 8949,
      "hammock": 8950,
      "adults": 8951,
      "chuckle": 8952,
      "chuckled": 8953,
      "movie": 8954,
      "movies": 8955,
      "module": 8956,
      "modules": 8957,
      "rigid": 8958,
      "sausage": 8959,
      "contamination": 8960,
      "distract": 8961,
      "distraction": 8962,
      "decrease": 8963,
      "quadruple": 8964,
      "hostile": 8965,
      "precise": 8966,
      "precision": 8967,
      "optimist": 8968,
      "optimal": 8969,
      "storm": 8970,
      "guidelines": 8971,
      "violently": 8972,
      "Intellectual": 8973,
      "monumental": 8974,
      "monumentally": 8975,
      "disruption": 8976,
      "buckets": 8977,
      "courtroom": 8978,
      "interrupted": 8979,
      "physiology": 8980,
      "Movement": 8981,
      "squirm": 8982,
      "medically": 8983,
      "medicine": 8984,
      "distribution": 8985,
      "Expected": 8986,
      "Expectations": 8987,
      "excitement": 8988,
      "transmitter": 8989,
      "horrified": 8990,
      "aaaait": 8991,
      "Submarine": 8992,
      "Engineer": 8993,
      "sneaky": 8994,
      "suffocation": 8995,
      "suffocate": 8996,
      "duplicate": 8997,
      "duplicated": 8998,
      "arbitrary": 8999,
      "arbitrarily": 9000,
      "0855": 9001,
      "0714": 9002,
      "ACTION": 9003,
      "BBC": 9004,
      "Brea": 9005,
      "Calculate": 9006,
      "Camera": 9007,
      "District": 9008,
      "Disease": 9009,
      "Extremely": 9010,
      "Fifty": 9011,
      "JECTO": 9012,
      "LIFE": 9013,
      "Maintain": 9014,
      "Option": 9015,
      "Presuming": 9016,
      "RATE": 9017,
      "STATUS": 9018,
      "Safe": 9019,
      "Saturn": 9020,
      "VVλ": 9021,
      "bridge": 9022,
      "ditched": 9023,
      "dangling": 9024,
      "dawns": 9025,
      "dormant": 9026,
      "earthquake": 9027,
      "future": 9028,
      "hunkers": 9029,
      "jagged": 9030,
      "loneliness": 9031,
      "luminosity": 9032,
      "numer": 9033,
      "punct": 9034,
      "target": 9035,
      "tongue": 9036,
      "tinkering": 9037,
      "“+”": 9038,
      "“♫♩.”": 9039,
      "“♫♩♪♫": 9040,
      "initiate": 9041,
      "reminded": 9042,
      "receiver": 9043,
      "stroke": 9044,
      "stammered": 9045,
      "measly": 9046,
      "armatures": 9047,
      "arithmetic": 9048,
      "assignment": 9049,
      "academia": 9050,
      "accomplished": 9051,
      "alternative": 9052,
      "absence": 9053,
      "abandoned": 9054,
      "admire": 9055,
      "splotches": 9056,
      "suscepti": 9057,
      "rainbow": 9058,
      "depends": 9059,
      "defines": 9060,
      "thermocouple": 9061,
      "scrapes": 9062,
      "preparing": 9063,
      "preferred": 9064,
      "seekers": 9065,
      "completes": 9066,
      "intuitive": 9067,
      "chemotherap": 9068,
      "synchron": 9069,
      "servos": 9070,
      "brutal": 9071,
      "pixelated": 9072,
      "Antibiotics": 9073,
      "oxidized": 9074,
      "Liberia": 9075,
      "acceptable": 9076,
      "disturbing": 9077,
      "satisfied": 9078,
      "Exactly": 9079,
      "Explosion": 9080,
      "skips": 9081,
      "hydrated": 9082,
      "columns": 9083,
      "gathering": 9084,
      "catastrophic": 9085,
      "Specify": 9086,
      "furrowed": 9087,
      "freakin": 9088,
      "sequences": 9089,
      "Communication": 9090,
      "photography": 9091,
      "vitamin": 9092,
      "amnesia": 9093,
      "customers": 9094,
      "introduce": 9095,
      "challenging": 9096,
      "Property": 9097,
      "Relativity": 9098,
      "aggressive": 9099,
      "accommodations": 9100,
      "Columbia": 9101,
      "Destroyer": 9102,
      "Sirius": 9103,
      "nutritionally": 9104,
      "nebulae": 9105,
      "opportunity": 9106,
      "Ahem": 9107,
      "Asian": 9108,
      "Blood": 9109,
      "Cyrillic": 9110,
      "Carbon": 9111,
      "Data": 9112,
      "Defense": 9113,
      "Einstein": 9114,
      "Flash": 9115,
      "Frankly": 9116,
      "Fourier": 9117,
      "Heroin": 9118,
      "Hundreds": 9119,
      "Irina": 9120,
      "ICTED": 9121,
      "Jerk": 9122,
      "Jesus": 9123,
      "Knock": 9124,
      "Kazakhst": 9125,
      "Language": 9126,
      "Matsuka": 9127,
      "Multiple": 9128,
      "NannyBot": 9129,
      "Occasionally": 9130,
      "OFFLINE": 9131,
      "Pilot": 9132,
      "PERATURE": 9133,
      "PREDICTED": 9134,
      "Release": 9135,
      "System": 9136,
      "Separ": 9137,
      "Trek": 9138,
      "Thailand": 9139,
      "Taser": 9140,
      "Tamora": 9141,
      "Taskforce": 9142,
      "TEMPERATURE": 9143,
      "TRAJECTO": 9144,
      "Utility": 9145,
      "Wrong": 9146,
      "Washington": 9147,
      "Wikipedia": 9148,
      "WISE": 9149,
      "Zylon": 9150,
      "aerodynamics": 9151,
      "aesthetic": 9152,
      "ahedron": 9153,
      "crowded": 9154,
      "evidence": 9155,
      "ecliptic": 9156,
      "foul": 9157,
      "jolt": 9158,
      "mulled": 9159,
      "nautical": 9160,
      "oyancy": 9161,
      "palms": 9162,
      "sabotage": 9163,
      "tarmac": 9164,
      "vomit": 9165,
      "vinyl": 9166,
      "wacky": 9167,
      "ИЛЮХИН": 9168,
      "infuri": 9169,
      "inflection": 9170,
      "inorganic": 9171,
      "inconsistently": 9172,
      "invested": 9173,
      "anonym": 9174,
      "annihil": 9175,
      "reminiscent": 9176,
      "renewable": 9177,
      "attempts": 9178,
      "encased": 9179,
      "enzymes": 9180,
      "stairwell": 9181,
      "steroids": 9182,
      "heterosexual": 9183,
      "meager": 9184,
      "megajoules": 9185,
      "ornament": 9186,
      "session": 9187,
      "belongings": 9188,
      "beaker": 9189,
      "beautiful": 9190,
      "alphabe": 9191,
      "limbs": 9192,
      "allotment": 9193,
      "lopsided": 9194,
      "abdomen": 9195,
      "abstract": 9196,
      "adjacent": 9197,
      "unspooled": 9198,
      "untrustworthy": 9199,
      "unadulterated": 9200,
      "chrysalis": 9201,
      "noodles": 9202,
      "dolphins": 9203,
      "splicing": 9204,
      "feminine": 9205,
      "consolation": 9206,
      "telescop": 9207,
      "maintenance": 9208,
      "diplomat": 9209,
      "deftly": 9210,
      "demonstrated": 9211,
      "delivered": 9212,
      "depression": 9213,
      "deflect": 9214,
      "derelict": 9215,
      "devices": 9216,
      "quieter": 9217,
      "executed": 9218,
      "protrusions": 9219,
      "omnidirectional": 9220,
      "Soviets": 9221,
      "comparatively": 9222,
      "intrepid": 9223,
      "intricacies": 9224,
      "hermetically": 9225,
      "Structure": 9226,
      "surgery": 9227,
      "Instrumentation": 9228,
      "manufacturing": 9229,
      "Celebration": 9230,
      "puddle": 9231,
      "intervals": 9232,
      "interchangeable": 9233,
      "philosopher": 9234,
      "Assumptions": 9235,
      "basketball": 9236,
      "certainty": 9237,
      "Recalibration": 9238,
      "CORRECTING": 9239,
      "firecracker": 9240,
      "University": 9241,
      "warranted": 9242,
      "ERROR": 9243,
      "catalyst": 9244,
      "eyepieces": 9245,
      "RELATIVE": 9246,
      "REQUIRED": 9247,
      "nanosyringes": 9248,
      "indestructible": 9249,
      "SUPPORT": 9250,
      "knickknacks": 9251,
      "ANGULAR": 9252,
      "ANOMALY": 9253,
      "MEASURED": 9254,
      "fundamentally": 9255,
      "susceptible": 9256,
      "chemotherapy": 9257,
      "synchronous": 9258,
      "Kazakhstani": 9259,
      "TRAJECTORY": 9260,
      "ИЛЮХИНА": 9261,
      "!)": 9262,
      "!’": 9263,
      "!),": 9264,
      "(“": 9265,
      ")…": 9266,
      "+,": 9267,
      ",+,": 9268,
      "-.”": 9269,
      "07": 9270,
      "015": 9271,
      "13": 9272,
      "14": 9273,
      "112": 9274,
      "135": 9275,
      "162": 9276,
      "137": 9277,
      "139": 9278,
      "22": 9279,
      "271": 9280,
      "280": 9281,
      "38": 9282,
      "300": 9283,
      "318": 9284,
      "380": 9285,
      "328": 9286,
      "366": 9287,
      "365": 9288,
      "47": 9289,
      "48": 9290,
      "450": 9291,
      "52": 9292,
      "517": 9293,
      "511": 9294,
      "595": 9295,
[...]
